/* Copyright 2020 The TensorFlow Authors. All Rights Reserved.

Licensed under the Apache License, Version 2.0 (the "License");
you may not use this file except in compliance with the License.
You may obtain a copy of the License at

    http://www.apache.org/licenses/LICENSE-2.0

Unless required by applicable law or agreed to in writing, software
distributed under the License is distributed on an "AS IS" BASIS,
WITHOUT WARRANTIES OR CONDITIONS OF ANY KIND, either express or implied.
See the License for the specific language governing permissions and
limitations under the License.
==============================================================================*/

// Automatically created from a TensorFlow Lite flatbuffer using the command:
// xxd -i model.tflite > model.cc

// This is a standard TensorFlow Lite model file that has been converted into a
// C data array, so it can be easily compiled into a binary for devices that
// don't have a file system.

// See train/README.md for a full description of the creation process.

#include "tensorflow/lite/micro/examples/model_runner/model.h"

// We need to keep the data array aligned on some architectures.
#ifdef __has_attribute
#define HAVE_ATTRIBUTE(x) __has_attribute(x)
#else
#define HAVE_ATTRIBUTE(x) 0
#endif
#if HAVE_ATTRIBUTE(aligned) || (defined(__GNUC__) && !defined(__clang__))
#define DATA_ALIGN_ATTRIBUTE __attribute__((aligned(16)))
#else
#define DATA_ALIGN_ATTRIBUTE
#endif
 
const int g_model_len = 25184;
const unsigned char g_model[] DATA_ALIGN_ATTRIBUTE = {0x1c, 0x00, 0x00, 0x00, 0x54, 0x46, 0x4c, 0x33, 0x14, 0x00, 0x20, 0x00, 0x1c, 0x00, 0x18, 0x00, 0x14, 0x00, 0x10, 0x00, 0x0c, 0x00, 0x00, 0x00, 0x08, 0x00, 0x04, 0x00, 0x14, 0x00, 0x00, 0x00, 0x1c, 0x00, 0x00, 0x00, 0x8c, 0x00, 0x00, 0x00, 0xe4, 0x00, 0x00, 0x00, 0x84, 0x21, 0x00, 0x00, 0x94, 0x21, 0x00, 0x00, 0x9c, 0x61, 0x00, 0x00, 0x03, 0x00, 0x00, 0x00, 0x01, 0x00, 0x00, 0x00, 0x04, 0x00, 0x00, 0x00, 0x9e, 0xdd, 0xff, 0xff, 0x0c, 0x00, 0x00, 0x00, 0x1c, 0x00, 0x00, 0x00, 0x40, 0x00, 0x00, 0x00, 0x0f, 0x00, 0x00, 0x00, 0x73, 0x65, 0x72, 0x76, 0x69, 0x6e, 0x67, 0x5f, 0x64, 0x65, 0x66, 0x61, 0x75, 0x6c, 0x74, 0x00, 0x01, 0x00, 0x00, 0x00, 0x04, 0x00, 0x00, 0x00, 0x90, 0xff, 0xff, 0xff, 0x22, 0x00, 0x00, 0x00, 0x04, 0x00, 0x00, 0x00, 0x0c, 0x00, 0x00, 0x00, 0x64, 0x65, 0x6e, 0x73, 0x65, 0x5f, 0x6f, 0x75, 0x74, 0x70, 0x75, 0x74, 0x00, 0x00, 0x00, 0x00, 0x01, 0x00, 0x00, 0x00, 0x04, 0x00, 0x00, 0x00, 0x46, 0xde, 0xff, 0xff, 0x04, 0x00, 0x00, 0x00, 0x08, 0x00, 0x00, 0x00, 0x69, 0x6e, 0x70, 0x75, 0x74, 0x5f, 0x32, 0x38, 0x00, 0x00, 0x00, 0x00, 0x02, 0x00, 0x00, 0x00, 0x34, 0x00, 0x00, 0x00, 0x04, 0x00, 0x00, 0x00, 0xdc, 0xff, 0xff, 0xff, 0x25, 0x00, 0x00, 0x00, 0x04, 0x00, 0x00, 0x00, 0x13, 0x00, 0x00, 0x00, 0x43, 0x4f, 0x4e, 0x56, 0x45, 0x52, 0x53, 0x49, 0x4f, 0x4e, 0x5f, 0x4d, 0x45, 0x54, 0x41, 0x44, 0x41, 0x54, 0x41, 0x00, 0x08, 0x00, 0x0c, 0x00, 0x08, 0x00, 0x04, 0x00, 0x08, 0x00, 0x00, 0x00, 0x24, 0x00, 0x00, 0x00, 0x04, 0x00, 0x00, 0x00, 0x13, 0x00, 0x00, 0x00, 0x6d, 0x69, 0x6e, 0x5f, 0x72, 0x75, 0x6e, 0x74, 0x69, 0x6d, 0x65, 0x5f, 0x76, 0x65, 0x72, 0x73, 0x69, 0x6f, 0x6e, 0x00, 0x26, 0x00, 0x00, 0x00, 0x9c, 0x20, 0x00, 0x00, 0x94, 0x20, 0x00, 0x00, 0x7c, 0x20, 0x00, 0x00, 0x64, 0x20, 0x00, 0x00, 0x14, 0x20, 0x00, 0x00, 0x84, 0x1f, 0x00, 0x00, 0x74, 0x1b, 0x00, 0x00, 0xe4, 0x1a, 0x00, 0x00, 0xb4, 0x19, 0x00, 0x00, 0x24, 0x19, 0x00, 0x00, 0x14, 0x15, 0x00, 0x00, 0x84, 0x14, 0x00, 0x00, 0x54, 0x13, 0x00, 0x00, 0xc4, 0x12, 0x00, 0x00, 0xb4, 0x0e, 0x00, 0x00, 0x24, 0x0e, 0x00, 0x00, 0xf4, 0x0c, 0x00, 0x00, 0x64, 0x0c, 0x00, 0x00, 0x54, 0x08, 0x00, 0x00, 0xc4, 0x07, 0x00, 0x00, 0x94, 0x06, 0x00, 0x00, 0x04, 0x06, 0x00, 0x00, 0xf4, 0x00, 0x00, 0x00, 0xec, 0x00, 0x00, 0x00, 0xe4, 0x00, 0x00, 0x00, 0xdc, 0x00, 0x00, 0x00, 0xd4, 0x00, 0x00, 0x00, 0xcc, 0x00, 0x00, 0x00, 0xc4, 0x00, 0x00, 0x00, 0xbc, 0x00, 0x00, 0x00, 0xb4, 0x00, 0x00, 0x00, 0xac, 0x00, 0x00, 0x00, 0xa4, 0x00, 0x00, 0x00, 0x9c, 0x00, 0x00, 0x00, 0x94, 0x00, 0x00, 0x00, 0x8c, 0x00, 0x00, 0x00, 0x6c, 0x00, 0x00, 0x00, 0x04, 0x00, 0x00, 0x00, 0x56, 0xdf, 0xff, 0xff, 0x04, 0x00, 0x00, 0x00, 0x58, 0x00, 0x00, 0x00, 0x0c, 0x00, 0x00, 0x00, 0x08, 0x00, 0x0e, 0x00, 0x08, 0x00, 0x04, 0x00, 0x08, 0x00, 0x00, 0x00, 0x10, 0x00, 0x00, 0x00, 0x28, 0x00, 0x00, 0x00, 0x00, 0x00, 0x06, 0x00, 0x08, 0x00, 0x04, 0x00, 0x06, 0x00, 0x00, 0x00, 0x04, 0x00, 0x00, 0x00, 0x01, 0x00, 0x00, 0x00, 0xeb, 0x03, 0x00, 0x00, 0x00, 0x00, 0x0a, 0x00, 0x10, 0x00, 0x0c, 0x00, 0x08, 0x00, 0x04, 0x00, 0x0a, 0x00, 0x00, 0x00, 0x02, 0x00, 0x00, 0x00, 0x02, 0x00, 0x00, 0x00, 0x04, 0x00, 0x00, 0x00, 0x06, 0x00, 0x00, 0x00, 0x32, 0x2e, 0x31, 0x30, 0x2e, 0x30, 0x00, 0x00, 0xba, 0xdf, 0xff, 0xff, 0x04, 0x00, 0x00, 0x00, 0x10, 0x00, 0x00, 0x00, 0x31, 0x2e, 0x31, 0x34, 0x2e, 0x30, 0x00, 0x00, 0x00, 0x00, 0x00, 0x00, 0x00, 0x00, 0x00, 0x00, 0x38, 0xa1, 0xff, 0xff, 0x3c, 0xa1, 0xff, 0xff, 0x40, 0xa1, 0xff, 0xff, 0x44, 0xa1, 0xff, 0xff, 0x48, 0xa1, 0xff, 0xff, 0x4c, 0xa1, 0xff, 0xff, 0x50, 0xa1, 0xff, 0xff, 0x54, 0xa1, 0xff, 0xff, 0x58, 0xa1, 0xff, 0xff, 0x5c, 0xa1, 0xff, 0xff, 0x60, 0xa1, 0xff, 0xff, 0x64, 0xa1, 0xff, 0xff, 0x68, 0xa1, 0xff, 0xff, 0x0a, 0xe0, 0xff, 0xff, 0x04, 0x00, 0x00, 0x00, 0x00, 0x05, 0x00, 0x00, 0xb8, 0x7f, 0xe4, 0xff, 0xc6, 0x5d, 0xe7, 0x0a, 0xec, 0xf4, 0xfb, 0x0b, 0xf8, 0xf3, 0x06, 0x02, 0x08, 0xf0, 0x12, 0x03, 0x1c, 0xeb, 0x14, 0xfe, 0x25, 0xea, 0x12, 0xfc, 0x23, 0xf2, 0x15, 0xfa, 0x2a, 0xee, 0x0a, 0xfc, 0x26, 0xec, 0xfb, 0x0c, 0x9d, 0xb8, 0x64, 0x7f, 0xb2, 0xe3, 0x57, 0x77, 0xc3, 0x1f, 0x39, 0x5e, 0xcd, 0x23, 0x2a, 0x1d, 0x20, 0x26, 0xf6, 0xea, 0x57, 0x15, 0xb5, 0xe1, 0x57, 0x04, 0xae, 0xd7, 0x49, 0xef, 0xb6, 0xf7, 0x1d, 0xfa, 0xbd, 0xe5, 0xda, 0x09, 0xdf, 0xea, 0x5d, 0xee, 0xeb, 0xb2, 0x62, 0xeb, 0xda, 0xbc, 0x69, 0xeb, 0xc9, 0xcc, 0x3e, 0xf3, 0xd6, 0xe7, 0x0f, 0xfe, 0xea, 0x0b, 0xe6, 0x0b, 0x05, 0x20, 0xa8, 0x11, 0x2e, 0x33, 0x9f, 0x1c, 0x3c, 0x33, 0x81, 0x20, 0x50, 0x33, 0xb3, 0x0a, 0x40, 0x26, 0x40, 0x46, 0x81, 0xe6, 0x0c, 0x18, 0xcb, 0x1e, 0x01, 0x0d, 0xef, 0x24, 0x01, 0x18, 0xec, 0x2b, 0xd1, 0x23, 0xf2, 0x27, 0x29, 0x1a, 0xe9, 0x08, 0x05, 0x04, 0x06, 0x04, 0x1b, 0xf1, 0x15, 0xfc, 0x42, 0x03, 0x22, 0xc9, 0xdb, 0x53, 0x5b, 0xc2, 0x7f, 0xc2, 0xcc, 0xf9, 0x67, 0xbd, 0xee, 0xf0, 0x33, 0xd8, 0x0c, 0xfa, 0x10, 0xfc, 0x0d, 0xe8, 0xef, 0x07, 0x13, 0xf0, 0xcf, 0x1f, 0x0c, 0x0a, 0xc0, 0x1c, 0x13, 0x0d, 0xc2, 0x20, 0x06, 0x11, 0xbb, 0x27, 0x0b, 0x13, 0xcd, 0x2c, 0x04, 0x19, 0xc9, 0x18, 0xf8, 0x26, 0xc3, 0x30, 0x03, 0x22, 0xa6, 0x31, 0x1f, 0x36, 0xdc, 0x26, 0x1a, 0x19, 0x1a, 0xfd, 0x0d, 0xfc, 0x6c, 0x00, 0xf4, 0xcd, 0x7f, 0xf9, 0xee, 0xc8, 0x59, 0xe9, 0xea, 0xee, 0x31, 0xdb, 0xeb, 0x0a, 0xed, 0xdf, 0x0c, 0x23, 0x81, 0x37, 0x43, 0x2e, 0x93, 0x14, 0x42, 0x49, 0xc9, 0xf0, 0x33, 0x36, 0xd1, 0xeb, 0x22, 0x35, 0xe1, 0xff, 0x15, 0x23, 0x0b, 0xe3, 0x00, 0x06, 0x38, 0xe5, 0xea, 0xed, 0x3a, 0xe6, 0x04, 0xda, 0x79, 0xfa, 0xbd, 0xb7, 0x69, 0x10, 0xb9, 0xcd, 0xfb, 0x39, 0x04, 0xb3, 0x4a, 0x1a, 0xe3, 0xbc, 0x6a, 0x01, 0xd5, 0xd0, 0x7f, 0xd9, 0xcd, 0xfa, 0x58, 0xa7, 0xcc, 0x34, 0x16, 0xad, 0xed, 0x59, 0xdb, 0xa8, 0x28, 0x54, 0xc0, 0xe5, 0x2e, 0x2b, 0xe4, 0xd5, 0x5c, 0x0c, 0xe9, 0xbd, 0x4c, 0xfe, 0x38, 0xea, 0xd4, 0x21, 0x34, 0xe7, 0xce, 0x2b, 0x42, 0xd7, 0xc6, 0x3e, 0x3a, 0xdd, 0xcd, 0x36, 0x28, 0xd8, 0xe3, 0x30, 0x04, 0xf1, 0xfd, 0x0f, 0xd1, 0x0f, 0x31, 0xe7, 0xba, 0x1c, 0x3a, 0xc8, 0x81, 0x78, 0x77, 0x99, 0xd7, 0x24, 0x52, 0xca, 0xef, 0xf5, 0xfb, 0x0e, 0xe9, 0x06, 0x0b, 0xfe, 0xf9, 0x0d, 0x0e, 0xf1, 0xff, 0x18, 0x10, 0xdc, 0x08, 0x15, 0x19, 0xd0, 0x06, 0x1c, 0x15, 0xcf, 0x14, 0x11, 0x13, 0xd3, 0xf1, 0xf8, 0xde, 0x81, 0x01, 0xee, 0xed, 0xad, 0x0f, 0xed, 0x28, 0xe6, 0x07, 0x16, 0x1c, 0xc1, 0xfa, 0x09, 0x38, 0xaa, 0x01, 0x05, 0xfd, 0x9c, 0x32, 0x28, 0xc1, 0x95, 0x14, 0x0e, 0xc4, 0xb8, 0xed, 0xf1, 0xe8, 0x0c, 0xd4, 0xd9, 0x20, 0x45, 0xe5, 0xe5, 0x4f, 0x5c, 0x00, 0xfb, 0x49, 0x57, 0x02, 0x35, 0x7f, 0x68, 0xfb, 0xcc, 0x12, 0x28, 0xd0, 0xec, 0x2b, 0x23, 0xac, 0x7f, 0xf8, 0xe0, 0x14, 0x5d, 0xe7, 0xb8, 0x58, 0x04, 0xd7, 0xe3, 0x43, 0xe0, 0xe8, 0x16, 0x13, 0xd8, 0xf1, 0x23, 0xf6, 0xe3, 0xff, 0x27, 0xff, 0xe6, 0x14, 0x0c, 0x04, 0xfd, 0x1d, 0xfd, 0xd7, 0x10, 0x10, 0x04, 0xa6, 0x37, 0x29, 0xed, 0x94, 0x61, 0x16, 0xf9, 0x90, 0x5b, 0x1c, 0xf1, 0xd2, 0x02, 0x09, 0x13, 0xe8, 0xee, 0x1b, 0x15, 0x1b, 0xe3, 0x0c, 0x01, 0x2e, 0xd5, 0xf7, 0x01, 0x7b, 0x95, 0xd0, 0x19, 0x7f, 0x94, 0xcb, 0x13, 0xbc, 0xc6, 0x7f, 0x28, 0xa6, 0xcb, 0x5a, 0x47, 0xa0, 0xc2, 0x43, 0x67, 0xb9, 0xb3, 0x35, 0x62, 0x04, 0xde, 0x0c, 0x2b, 0xfb, 0x12, 0xe8, 0x0d, 0x16, 0x19, 0xeb, 0xe7, 0x4c, 0x3c, 0xbc, 0xa5, 0x45, 0x53, 0xa9, 0xa9, 0x2e, 0x57, 0xc8, 0xad, 0x07, 0xea, 0x13, 0xef, 0xfe, 0xe8, 0x1f, 0xf5, 0xfe, 0xf8, 0x0d, 0x00, 0x0c, 0xf9, 0xfe, 0xfe, 0xdf, 0x3c, 0xda, 0x04, 0x81, 0x6d, 0xbf, 0x16, 0x87, 0x5d, 0xc3, 0x1c, 0xca, 0x4b, 0xe4, 0x11, 0xee, 0x19, 0xf7, 0xf5, 0x06, 0xf8, 0x02, 0xf9, 0xdb, 0x5a, 0xfc, 0xcb, 0xbe, 0x4e, 0x1a, 0xd4, 0xb3, 0x36, 0x3a, 0xee, 0xc1, 0xe6, 0x3c, 0x10, 0xdb, 0xcf, 0x3b, 0x32, 0xfc, 0xb7, 0xfb, 0x52, 0x2c, 0xc3, 0xe3, 0x48, 0x4f, 0xe5, 0xd4, 0x29, 0x7f, 0x06, 0xab, 0xf8, 0x54, 0x3f, 0xe6, 0xd3, 0x4b, 0x2b, 0xb0, 0xc9, 0x5f, 0x46, 0x95, 0xb7, 0x4f, 0x61, 0x81, 0xac, 0x39, 0x3d, 0xb9, 0xd1, 0x12, 0x22, 0xdc, 0xf5, 0xcf, 0xe2, 0x25, 0x28, 0xae, 0xc7, 0x4d, 0x50, 0xb0, 0xc2, 0x57, 0x44, 0xc0, 0xc5, 0x50, 0x26, 0xda, 0xde, 0x45, 0x27, 0xe5, 0x41, 0xd4, 0x12, 0xfa, 0x1e, 0xdd, 0x17, 0x06, 0xeb, 0x08, 0x0b, 0x13, 0xb3, 0x40, 0x02, 0x1c, 0x9f, 0x76, 0xe8, 0x0f, 0x9a, 0x7f, 0xdf, 0x18, 0xb6, 0x65, 0xdc, 0x0c, 0xd8, 0x33, 0xe4, 0x13, 0xf5, 0x08, 0x01, 0xfd, 0x1c, 0xe6, 0x00, 0x1c, 0xe5, 0xfd, 0x11, 0x68, 0x1b, 0xb8, 0xf2, 0x2f, 0x10, 0xc1, 0xf4, 0x4b, 0x22, 0xc3, 0xde, 0x10, 0x3e, 0xbb, 0xe3, 0xc8, 0x2c, 0xe1, 0x0a, 0xa9, 0x1d, 0x10, 0x1c, 0xa2, 0x07, 0x2d, 0x1b, 0x81, 0xe9, 0x39, 0x4d, 0xb7, 0xe9, 0x3e, 0x1d, 0x10, 0xc1, 0xe8, 0x41, 0xe3, 0xb5, 0xfd, 0x53, 0xda, 0xde, 0xf4, 0x3c, 0xf3, 0x4e, 0x56, 0x26, 0xd7, 0x27, 0xfd, 0xf0, 0x59, 0x7f, 0x29, 0xfc, 0xf1, 0x06, 0xe4, 0xf5, 0x00, 0x02, 0xc2, 0xed, 0xe9, 0xe1, 0xe0, 0x33, 0xb7, 0xed, 0xe1, 0x29, 0x9b, 0x57, 0x25, 0xe1, 0x9b, 0x22, 0x20, 0x1f, 0x8d, 0x13, 0x31, 0x30, 0x9f, 0xeb, 0x37, 0x3c, 0xe4, 0xda, 0x2d, 0x2b, 0x27, 0xdb, 0x19, 0x09, 0x5b, 0xf1, 0xf6, 0xeb, 0x69, 0x1e, 0xa0, 0xda, 0x66, 0x36, 0x81, 0xdd, 0x32, 0x1a, 0xce, 0xe4, 0x31, 0xfb, 0xf2, 0xd2, 0x1a, 0xfc, 0x26, 0xd0, 0x22, 0xf2, 0x0d, 0xd9, 0x2b, 0xe6, 0xfb, 0xee, 0x11, 0xed, 0x0f, 0xf9, 0xfe, 0xe2, 0x0b, 0x0f, 0x1a, 0xd8, 0x04, 0x00, 0x6e, 0x5f, 0x3d, 0x63, 0x31, 0xe0, 0xea, 0x03, 0x7f, 0x75, 0x4b, 0x0e, 0x0b, 0xff, 0x01, 0xfb, 0x0c, 0xff, 0xfb, 0xff, 0xfd, 0x00, 0x00, 0x02, 0xfa, 0xfe, 0x02, 0xfe, 0xf9, 0xff, 0xfe, 0x02, 0xfe, 0x03, 0xfe, 0x05, 0xfa, 0x07, 0xfe, 0x03, 0xe9, 0x01, 0x00, 0x0c, 0x81, 0xf8, 0xeb, 0xfa, 0xfa, 0xfe, 0x04, 0xfc, 0xf3, 0xd0, 0xc3, 0x58, 0xec, 0xe3, 0xc7, 0x40, 0xc6, 0xe6, 0x81, 0x9a, 0x17, 0x09, 0xf5, 0xc4, 0x18, 0xf5, 0xf4, 0xd2, 0x0d, 0xfa, 0xf3, 0xd3, 0x1a, 0x0c, 0xc8, 0x00, 0x1d, 0x1a, 0xa2, 0xe7, 0x0f, 0x07, 0xbf, 0x27, 0x10, 0xf3, 0xb5, 0x58, 0xd4, 0x37, 0xc8, 0xf3, 0xe6, 0x1a, 0xf2, 0xe4, 0xa5, 0x08, 0x2d, 0xdd, 0x81, 0xf0, 0x1a, 0xfe, 0xaa, 0xff, 0x0b, 0xfe, 0x13, 0x17, 0xaa, 0x1c, 0xf4, 0x09, 0xc3, 0x39, 0xe8, 0xf1, 0x24, 0xef, 0xcc, 0x07, 0x38, 0xf4, 0xc8, 0x11, 0x34, 0xfb, 0x39, 0x25, 0x23, 0x81, 0x21, 0x20, 0x35, 0x9f, 0xee, 0x1c, 0x3f, 0xc7, 0xf1, 0x0b, 0x36, 0xe0, 0xf1, 0xfc, 0x24, 0xf1, 0x05, 0xff, 0x0c, 0x0b, 0x0a, 0xf0, 0xe3, 0x45, 0x06, 0xf2, 0xcf, 0x49, 0xf4, 0xf0, 0xb2, 0x5c, 0xf8, 0xf3, 0xbb, 0x5a, 0xfe, 0xfd, 0xa6, 0x09, 0x07, 0x0c, 0x99, 0xf5, 0x0f, 0x1c, 0xa6, 0x06, 0x01, 0x16, 0x8c, 0xff, 0x16, 0x0e, 0x9e, 0x16, 0xf8, 0xf3, 0x81, 0xf2, 0xe8, 0xf2, 0xad, 0xff, 0x09, 0xfd, 0xd2, 0x1f, 0xfc, 0x0b, 0xda, 0x01, 0x01, 0x00, 0xe3, 0x10, 0x26, 0x0a, 0xe5, 0xda, 0x29, 0x11, 0xea, 0xf5, 0x1c, 0x06, 0x04, 0x07, 0x1e, 0xfb, 0x15, 0x1a, 0x01, 0x23, 0x17, 0x7f, 0x00, 0x18, 0x19, 0x74, 0xf7, 0x0a, 0x22, 0x42, 0xc2, 0xe7, 0xfa, 0xee, 0xdd, 0xe4, 0xef, 0xd3, 0x01, 0xf5, 0xdc, 0xa9, 0x67, 0x42, 0xc1, 0x93, 0x53, 0x76, 0xd5, 0x81, 0x39, 0x47, 0xf2, 0x9c, 0x18, 0x30, 0x02, 0xc0, 0xf0, 0x0b, 0x0e, 0x02, 0xb3, 0xdd, 0x2b, 0x39, 0xa7, 0xc4, 0x20, 0x62, 0xba, 0xb6, 0x0f, 0x6b, 0xd7, 0xbf, 0xef, 0x5d, 0xee, 0xea, 0xec, 0x22, 0x29, 0xcb, 0xc7, 0x57, 0x01, 0xc3, 0xf5, 0x4e, 0xf7, 0xa4, 0x23, 0x47, 0xc8, 0xcc, 0x46, 0x19, 0xb1, 0x0b, 0x40, 0xe3, 0xb3, 0x58, 0x29, 0xd8, 0xe9, 0x7f, 0x04, 0xd2, 0x46, 0x4f, 0xae, 0xec, 0x53, 0x76, 0xd5, 0xce, 0x45, 0x2b, 0xf0, 0x02, 0x11, 0x11, 0x15, 0xd0, 0x0a, 0x0c, 0xf6, 0xe8, 0xc7, 0xb8, 0x8a, 0x81, 0xfd, 0xee, 0xf6, 0x01, 0xf7, 0xf7, 0x13, 0x06, 0xf7, 0x09, 0x13, 0xe7, 0xfb, 0x12, 0x23, 0xe5, 0xff, 0x15, 0x17, 0xe6, 0x11, 0x05, 0x23, 0xeb, 0x18, 0xf8, 0x26, 0xe7, 0xf4, 0xbc, 0x7f, 0xbe, 0xd7, 0xc6, 0x67, 0xd3, 0xd0, 0xec, 0x5a, 0xe2, 0xf7, 0xda, 0x2c, 0x0b, 0xf7, 0x08, 0xf0, 0x31, 0x8b, 0x5c, 0xef, 0x27, 0xa6, 0x2d, 0xfa, 0x3c, 0x11, 0x00, 0xe2, 0x22, 0x2c, 0x1d, 0xe9, 0x00, 0x3e, 0x16, 0xcd, 0x06, 0x16, 0xe5, 0xff, 0xff, 0x04, 0x00, 0x00, 0x00, 0x80, 0x00, 0x00, 0x00, 0xab, 0xd3, 0xff, 0xff, 0x45, 0xfc, 0xff, 0xff, 0xd1, 0xfb, 0xff, 0xff, 0x89, 0xf7, 0xff, 0xff, 0x8c, 0x06, 0x00, 0x00, 0x74, 0xff, 0xff, 0xff, 0x91, 0xfa, 0xff, 0xff, 0x47, 0xd9, 0xff, 0xff, 0x77, 0xfc, 0xff, 0xff, 0xa9, 0x0b, 0x00, 0x00, 0x58, 0x05, 0x00, 0x00, 0xbf, 0xf5, 0xff, 0xff, 0xcf, 0x01, 0x00, 0x00, 0xa2, 0x0e, 0x00, 0x00, 0x01, 0xf0, 0xff, 0xff, 0x8d, 0x02, 0x00, 0x00, 0x28, 0x02, 0x00, 0x00, 0x46, 0xde, 0xff, 0xff, 0x1b, 0xe4, 0xff, 0xff, 0xd7, 0x03, 0x00, 0x00, 0xb2, 0x0f, 0x00, 0x00, 0x4c, 0xc7, 0xff, 0xff, 0x39, 0x02, 0x00, 0x00, 0x93, 0x2f, 0x00, 0x00, 0xed, 0xf6, 0xff, 0xff, 0xbc, 0x00, 0x00, 0x00, 0x07, 0x1a, 0x00, 0x00, 0xc1, 0x04, 0x00, 0x00, 0x27, 0xf8, 0xff, 0xff, 0xc6, 0x0a, 0x00, 0x00, 0xfa, 0x00, 0x00, 0x00, 0xc4, 0xfd, 0xff, 0xff, 0xa2, 0xe5, 0xff, 0xff, 0x04, 0x00, 0x00, 0x00, 0x20, 0x01, 0x00, 0x00, 0x73, 0xd5, 0x3b, 0x45, 0x97, 0x7f, 0xe5, 0x9a, 0x33, 0x1c, 0x90, 0x33, 0x1d, 0x0e, 0x59, 0xb3, 0x01, 0x89, 0x86, 0x0a, 0x7f, 0xee, 0x89, 0x98, 0x07, 0x17, 0xfe, 0x7f, 0x84, 0xf0, 0x01, 0x11, 0xe2, 0xf3, 0xf0, 0xb1, 0xc1, 0xed, 0x0b, 0x04, 0x09, 0x9a, 0x79, 0xff, 0x17, 0x03, 0xfa, 0x5b, 0xd1, 0xfe, 0x17, 0xa4, 0xf5, 0x2a, 0xdb, 0x16, 0xd1, 0x55, 0x0c, 0xe9, 0x25, 0xf8, 0x0b, 0x12, 0xf5, 0x2e, 0x63, 0xdf, 0x5f, 0xcd, 0x20, 0x81, 0xfc, 0xcf, 0xa5, 0x4a, 0xf6, 0x7f, 0xf8, 0x9d, 0x4f, 0xae, 0x13, 0xf9, 0xfa, 0x8f, 0xfa, 0x0d, 0x00, 0x01, 0x81, 0xc1, 0xdd, 0xe9, 0xef, 0x11, 0x65, 0xde, 0xfb, 0x0b, 0x81, 0xa1, 0xb8, 0xe4, 0xb9, 0x1d, 0x77, 0x7f, 0x0c, 0x1c, 0x3a, 0x6b, 0x17, 0xa0, 0x81, 0xff, 0xc3, 0xf1, 0x81, 0x8d, 0xc6, 0x9d, 0x06, 0xf1, 0x81, 0xc9, 0x00, 0x7f, 0xf1, 0x42, 0xfd, 0xc5, 0xf3, 0xe7, 0x0f, 0xe7, 0xf6, 0xb3, 0xb9, 0x2b, 0xa9, 0x00, 0xca, 0xd2, 0xe3, 0xfe, 0x01, 0x81, 0xe2, 0x66, 0xd4, 0x28, 0x35, 0xc6, 0x08, 0x1d, 0xbe, 0xfa, 0xfe, 0xef, 0xbb, 0x7f, 0x77, 0xcf, 0x5b, 0x16, 0x5d, 0x8c, 0xf9, 0x35, 0x81, 0x3a, 0x15, 0xc0, 0xf8, 0x7f, 0x7f, 0x91, 0x10, 0xed, 0xfc, 0x81, 0x0f, 0xce, 0xfe, 0xc2, 0x90, 0xfb, 0x90, 0xeb, 0x90, 0xea, 0x7f, 0x05, 0x28, 0x7f, 0xed, 0xcb, 0xf8, 0xfe, 0x7f, 0xe9, 0x0f, 0x8c, 0xe8, 0x01, 0x7f, 0x53, 0x09, 0x9d, 0xa6, 0xea, 0xe4, 0x1b, 0x9b, 0x81, 0x7f, 0x81, 0xfb, 0xf9, 0x02, 0x7f, 0x06, 0xc2, 0xf4, 0xe6, 0xf7, 0xb3, 0xed, 0x08, 0xd1, 0xba, 0x23, 0x81, 0xd7, 0x05, 0x81, 0xfa, 0xf5, 0xb6, 0x10, 0xfe, 0x25, 0x97, 0x34, 0xad, 0xc2, 0xe6, 0xfa, 0x55, 0x03, 0xfd, 0x8d, 0xfa, 0xfb, 0xf5, 0xcf, 0x9d, 0x7f, 0x22, 0xdd, 0x21, 0x7f, 0xd7, 0xf8, 0xf1, 0xa0, 0xb8, 0xfe, 0xf1, 0x0b, 0x06, 0xb1, 0x81, 0xee, 0xe2, 0x01, 0x00, 0x07, 0x06, 0x0f, 0xd5, 0x9f, 0x12, 0xa6, 0x10, 0x81, 0xdf, 0xce, 0xe6, 0xff, 0xff, 0x04, 0x00, 0x00, 0x00, 0x80, 0x00, 0x00, 0x00, 0xf3, 0xff, 0xff, 0xff, 0xb7, 0xff, 0xff, 0xff, 0xc6, 0x02, 0x00, 0x00, 0xb3, 0x01, 0x00, 0x00, 0x57, 0x04, 0x00, 0x00, 0x98, 0x02, 0x00, 0x00, 0x58, 0x09, 0x00, 0x00, 0xbd, 0x09, 0x00, 0x00, 0xe5, 0xfd, 0xff, 0xff, 0x03, 0x0b, 0x00, 0x00, 0x70, 0x06, 0x00, 0x00, 0xe2, 0xfe, 0xff, 0xff, 0x39, 0x11, 0x00, 0x00, 0x22, 0xfe, 0xff, 0xff, 0x57, 0x00, 0x00, 0x00, 0x32, 0x04, 0x00, 0x00, 0xac, 0x00, 0x00, 0x00, 0xf7, 0x08, 0x00, 0x00, 0x6e, 0x03, 0x00, 0x00, 0x28, 0x0c, 0x00, 0x00, 0xca, 0x01, 0x00, 0x00, 0xec, 0x00, 0x00, 0x00, 0x2b, 0x10, 0x00, 0x00, 0x23, 0x10, 0x00, 0x00, 0x91, 0xff, 0xff, 0xff, 0x47, 0x09, 0x00, 0x00, 0x82, 0x12, 0x00, 0x00, 0x63, 0xff, 0xff, 0xff, 0x50, 0x16, 0x00, 0x00, 0xf8, 0x02, 0x00, 0x00, 0x84, 0x0a, 0x00, 0x00, 0x65, 0x00, 0x00, 0x00, 0x5a, 0xe7, 0xff, 0xff, 0x04, 0x00, 0x00, 0x00, 0x00, 0x04, 0x00, 0x00, 0x08, 0x10, 0x2a, 0x0e, 0x53, 0xd6, 0xe9, 0xf5, 0x06, 0xfe, 0xe3, 0x01, 0xa3, 0x48, 0x0f, 0xbc, 0xed, 0x0c, 0xe2, 0xe6, 0x15, 0xeb, 0x3e, 0x6d, 0xaf, 0x61, 0x81, 0x0a, 0xaa, 0xd5, 0x85, 0xda, 0x10, 0xe9, 0x15, 0x07, 0x05, 0xfe, 0x05, 0xc7, 0xf2, 0x13, 0xce, 0x3b, 0x23, 0xdf, 0x06, 0x13, 0x30, 0x15, 0x81, 0x0d, 0xbd, 0xe8, 0xe0, 0xf5, 0xf5, 0x9c, 0x1d, 0x17, 0x9a, 0xe0, 0x0b, 0xee, 0x2b, 0xfc, 0x03, 0x1a, 0xea, 0xdf, 0xea, 0xea, 0xf0, 0x01, 0xe2, 0x20, 0x2b, 0xf2, 0x1f, 0x11, 0x06, 0x81, 0x43, 0x10, 0xcc, 0xfd, 0xe8, 0x1a, 0x19, 0xec, 0xef, 0xfa, 0x20, 0xf8, 0xf0, 0x05, 0x11, 0xef, 0xc5, 0xf7, 0x09, 0xfe, 0x3f, 0xe3, 0xb3, 0xe1, 0xed, 0x18, 0x46, 0xc8, 0xff, 0x31, 0x18, 0x81, 0x31, 0xf4, 0x95, 0xdd, 0xf5, 0x75, 0x0f, 0x00, 0x58, 0xfa, 0x12, 0x32, 0x41, 0xf0, 0xe7, 0x08, 0xa1, 0x0e, 0xc9, 0x10, 0x22, 0xf4, 0x29, 0x3e, 0x48, 0x06, 0xe0, 0x23, 0x05, 0x00, 0x81, 0x21, 0xe5, 0x06, 0x0a, 0x37, 0xf6, 0x22, 0x10, 0x28, 0x1f, 0x16, 0x44, 0x18, 0x23, 0x1e, 0xed, 0x0f, 0x12, 0x27, 0xe0, 0xe5, 0xfd, 0xf9, 0x7f, 0xff, 0xf7, 0xfa, 0xac, 0x16, 0x09, 0xca, 0x14, 0xc2, 0xf8, 0xf6, 0x0c, 0x0c, 0x13, 0x24, 0xf0, 0x45, 0xf9, 0xe7, 0x1e, 0x3e, 0x03, 0xed, 0x81, 0xdb, 0x2d, 0xfb, 0xd1, 0x2b, 0xd7, 0xc1, 0x43, 0xe6, 0xcb, 0xfa, 0xcf, 0xf3, 0x0e, 0xea, 0x14, 0xfa, 0xc2, 0x02, 0x1c, 0x06, 0xbf, 0x04, 0x1f, 0x04, 0x14, 0x42, 0xfa, 0x3e, 0x22, 0xe7, 0xc9, 0x1b, 0x11, 0xae, 0xe9, 0xf6, 0xde, 0x1b, 0x19, 0xf2, 0x03, 0x01, 0xba, 0x35, 0x81, 0xb1, 0xdb, 0xf4, 0x2d, 0x18, 0x3f, 0xff, 0x07, 0x07, 0x0a, 0x0b, 0x2b, 0x1f, 0x36, 0x07, 0x1d, 0x07, 0xfd, 0x1c, 0x81, 0xac, 0xdb, 0x00, 0xff, 0xe6, 0xe9, 0x3f, 0x31, 0x1d, 0x26, 0x16, 0xf0, 0xf7, 0xce, 0x57, 0x35, 0x13, 0xe7, 0x31, 0x36, 0x32, 0x41, 0xe8, 0x15, 0xeb, 0xed, 0x21, 0x23, 0xfd, 0xfe, 0x35, 0xda, 0x0f, 0xdf, 0xfa, 0x34, 0xfc, 0xed, 0xc2, 0xc4, 0x07, 0x26, 0x33, 0x03, 0x07, 0x13, 0xf5, 0xda, 0xff, 0xe1, 0xe5, 0x7f, 0x27, 0x18, 0xfe, 0xea, 0x05, 0x49, 0xf3, 0x10, 0x13, 0x01, 0x10, 0x19, 0xfe, 0xf0, 0xea, 0xf4, 0xe7, 0xf4, 0x08, 0xe6, 0xea, 0x15, 0xeb, 0xff, 0x2c, 0x0d, 0xd0, 0xa6, 0xb9, 0xe1, 0xe5, 0x81, 0x18, 0xf3, 0xee, 0x26, 0x42, 0x9e, 0x37, 0x3b, 0x1f, 0xee, 0x69, 0xdf, 0x0e, 0xa8, 0x43, 0x7f, 0xf2, 0x69, 0xe5, 0x25, 0xea, 0xfb, 0x27, 0x0c, 0x20, 0xe4, 0xa8, 0xea, 0xd3, 0xf4, 0xf4, 0x1f, 0xdc, 0x03, 0xc0, 0xce, 0xf8, 0xda, 0x23, 0x26, 0x07, 0xb4, 0x05, 0x01, 0xb7, 0xf9, 0x4f, 0xfc, 0x1e, 0x1f, 0x39, 0x3f, 0xec, 0xfd, 0x18, 0xd8, 0xba, 0x03, 0xee, 0x3c, 0x0d, 0x41, 0x41, 0x24, 0xfa, 0x03, 0x20, 0x09, 0xe8, 0xc7, 0xaa, 0xcd, 0x81, 0x14, 0x81, 0xf0, 0x15, 0x03, 0xbf, 0xb4, 0xf2, 0x34, 0x46, 0x07, 0x03, 0xf6, 0x9f, 0x1b, 0xf8, 0x18, 0x94, 0xd2, 0x68, 0x46, 0x39, 0xbc, 0xaa, 0xcd, 0x15, 0x3c, 0x38, 0xe2, 0x2e, 0x7c, 0x0c, 0xef, 0xe6, 0x1e, 0x00, 0xb2, 0xe3, 0xe1, 0x83, 0x21, 0xc8, 0xd9, 0xef, 0xbe, 0xf2, 0x02, 0xd6, 0x34, 0x9a, 0xc9, 0xb0, 0xcc, 0xef, 0x01, 0x1b, 0xf2, 0x19, 0xdd, 0x32, 0x81, 0x4d, 0x18, 0x08, 0x1a, 0x2d, 0x34, 0x08, 0xd9, 0x01, 0x0d, 0x9f, 0x36, 0x2e, 0xec, 0x26, 0x2f, 0x61, 0x06, 0x09, 0xf5, 0xe7, 0x2c, 0x93, 0x81, 0xcc, 0x32, 0x08, 0xce, 0x3e, 0xc0, 0x27, 0xde, 0xfd, 0x04, 0xff, 0x7f, 0x0d, 0x11, 0x32, 0x1a, 0xf5, 0x0d, 0x12, 0xf5, 0x17, 0x03, 0x16, 0x22, 0xe1, 0x1f, 0x21, 0x14, 0xdc, 0xd8, 0xca, 0xee, 0x10, 0x25, 0xfd, 0xc0, 0xe0, 0x27, 0x06, 0xd7, 0xd4, 0xf4, 0xf8, 0xb2, 0xf2, 0x09, 0xac, 0xcc, 0x81, 0x09, 0x06, 0xa3, 0xe9, 0x85, 0xd2, 0xd7, 0xed, 0x9f, 0xff, 0xa5, 0x3a, 0x10, 0xdf, 0xaa, 0xa3, 0x22, 0x66, 0x07, 0x09, 0x13, 0x08, 0xbb, 0xf1, 0xb6, 0x57, 0xfe, 0xff, 0x39, 0x94, 0x56, 0x04, 0x0f, 0x3c, 0xd7, 0xbd, 0xfe, 0xb4, 0x1b, 0x26, 0x97, 0x7f, 0x0f, 0x1c, 0x0c, 0x07, 0x37, 0xb0, 0x27, 0xbf, 0x27, 0x4b, 0xbc, 0x8c, 0xcd, 0x3b, 0xf9, 0x56, 0x84, 0x8b, 0x31, 0xd8, 0x4e, 0x65, 0x9b, 0x1b, 0x1b, 0xee, 0xda, 0xed, 0x19, 0xb1, 0xd9, 0x13, 0x7f, 0xdc, 0x9c, 0x16, 0x63, 0x3e, 0xb6, 0xb6, 0xec, 0xaa, 0x45, 0x1c, 0xdd, 0xe6, 0x1f, 0xb7, 0x00, 0xc4, 0x2d, 0xde, 0xfb, 0xdf, 0x81, 0x9b, 0xf8, 0xd1, 0xba, 0xe8, 0x03, 0xf1, 0xf8, 0x2c, 0x21, 0x27, 0xec, 0x10, 0x3f, 0xe9, 0xde, 0x0b, 0x0e, 0x25, 0x91, 0x3b, 0xac, 0x15, 0xba, 0x24, 0x06, 0xd4, 0xfd, 0xd7, 0xb4, 0x86, 0x0f, 0xf9, 0xf8, 0x0f, 0x02, 0xe5, 0xbc, 0xf5, 0xec, 0xef, 0xe2, 0xe0, 0x26, 0xec, 0xb7, 0x11, 0x81, 0x1b, 0x2b, 0x23, 0x2c, 0x42, 0x94, 0x45, 0x11, 0xe8, 0xc3, 0x15, 0x04, 0xf6, 0x2f, 0x13, 0xf3, 0x3f, 0xe8, 0xfd, 0x08, 0xfd, 0xdd, 0xf9, 0x81, 0xf6, 0xf2, 0x2b, 0x0b, 0xc3, 0x18, 0x06, 0x1c, 0x20, 0x00, 0x3e, 0x1d, 0xc0, 0x19, 0x13, 0x0d, 0xf1, 0x13, 0x1b, 0x81, 0xff, 0xb4, 0x0e, 0x12, 0xd5, 0x8f, 0x27, 0xfd, 0x37, 0x38, 0x14, 0x06, 0xe6, 0xb5, 0xb7, 0xff, 0x23, 0xe2, 0x07, 0xdc, 0xf5, 0x11, 0x4b, 0xd6, 0xf7, 0xfd, 0xf7, 0xf7, 0x08, 0x41, 0xdc, 0x2d, 0x2f, 0x54, 0x67, 0x07, 0xc1, 0xe2, 0xf8, 0xe7, 0x34, 0x29, 0xcc, 0x10, 0xc3, 0xf9, 0x10, 0x7f, 0xf6, 0x23, 0x2c, 0xd2, 0x1f, 0x69, 0x08, 0x0c, 0x13, 0x0f, 0xc8, 0xf6, 0x0a, 0x0d, 0x07, 0x4a, 0x42, 0x2f, 0x28, 0x0b, 0xab, 0xcf, 0xff, 0xf6, 0x7e, 0xc1, 0xe1, 0x26, 0xe8, 0x5c, 0x29, 0xa9, 0xf2, 0xec, 0x47, 0xf4, 0x81, 0xd4, 0xf3, 0xd9, 0x03, 0x00, 0xf2, 0x0d, 0x02, 0xce, 0x00, 0x00, 0xe8, 0xe5, 0xf0, 0xfd, 0x0b, 0xfb, 0x12, 0xfd, 0xf0, 0xfc, 0x04, 0x81, 0x00, 0x03, 0xfb, 0xff, 0xf3, 0xff, 0x0a, 0xfc, 0xfc, 0xf1, 0xfb, 0x08, 0x01, 0xfb, 0x0d, 0x05, 0xf5, 0xfd, 0x42, 0xea, 0x14, 0xb0, 0xd3, 0xea, 0x1e, 0xed, 0x41, 0x0e, 0x0d, 0x1f, 0x40, 0xfd, 0xf4, 0xb0, 0x7f, 0xff, 0xfa, 0xc4, 0x14, 0x62, 0x07, 0xd8, 0xdc, 0xef, 0xff, 0x2e, 0xf1, 0xe5, 0xf1, 0x81, 0xe5, 0x3e, 0xa6, 0x41, 0xa2, 0x9f, 0xdf, 0xa8, 0xe3, 0xdf, 0x49, 0xac, 0xd9, 0xb6, 0xa3, 0x23, 0xfe, 0x16, 0x1a, 0x16, 0xfe, 0x15, 0x08, 0xf5, 0x06, 0xf5, 0xcb, 0xb3, 0x28, 0xf4, 0x96, 0x08, 0x16, 0x1a, 0x03, 0x1b, 0x04, 0x2f, 0xda, 0x1b, 0x11, 0x17, 0x0f, 0x0b, 0x1b, 0x00, 0x0e, 0x0b, 0xba, 0x2c, 0xe6, 0x06, 0xf9, 0x0d, 0x37, 0xf8, 0x1e, 0xee, 0x1e, 0xdd, 0xf4, 0x81, 0x0e, 0x51, 0x14, 0x17, 0x59, 0x21, 0xf2, 0xc0, 0xcf, 0xd5, 0xf6, 0xfa, 0x7f, 0xbf, 0xd2, 0x48, 0xf2, 0x12, 0x1e, 0xe4, 0xb7, 0xdf, 0xca, 0x2a, 0x3a, 0xe1, 0xe8, 0xd1, 0xeb, 0xf5, 0x34, 0xf8, 0x29, 0x5d, 0x06, 0x68, 0xe6, 0x7f, 0x36, 0xe0, 0xd3, 0xab, 0xe5, 0xda, 0x57, 0x2b, 0xbb, 0xfb, 0x3f, 0x41, 0xf6, 0xcd, 0x51, 0x10, 0xe3, 0x32, 0x22, 0x08, 0x18, 0xe3, 0x44, 0x9e, 0xb2, 0x00, 0x3c, 0x66, 0xeb, 0xff, 0xff, 0x04, 0x00, 0x00, 0x00, 0x80, 0x00, 0x00, 0x00, 0xfe, 0x0e, 0x00, 0x00, 0x31, 0x0c, 0x00, 0x00, 0xc3, 0x03, 0x00, 0x00, 0x88, 0x08, 0x00, 0x00, 0x09, 0x03, 0x00, 0x00, 0x98, 0x04, 0x00, 0x00, 0xdb, 0x0e, 0x00, 0x00, 0x75, 0x07, 0x00, 0x00, 0xd0, 0xff, 0xff, 0xff, 0xcc, 0xfc, 0xff, 0xff, 0xbe, 0x12, 0x00, 0x00, 0x94, 0x02, 0x00, 0x00, 0x97, 0x00, 0x00, 0x00, 0x03, 0x08, 0x00, 0x00, 0x25, 0x1e, 0x00, 0x00, 0x9f, 0x17, 0x00, 0x00, 0xa1, 0xff, 0xff, 0xff, 0xfc, 0x17, 0x00, 0x00, 0xe1, 0xfc, 0xff, 0xff, 0x44, 0x0d, 0x00, 0x00, 0xf8, 0x25, 0x00, 0x00, 0x52, 0x19, 0x00, 0x00, 0x7c, 0xff, 0xff, 0xff, 0x5c, 0x1a, 0x00, 0x00, 0x92, 0xfb, 0xff, 0xff, 0x2c, 0x10, 0x00, 0x00, 0x26, 0x04, 0x00, 0x00, 0x08, 0x08, 0x00, 0x00, 0x26, 0x12, 0x00, 0x00, 0xb3, 0x06, 0x00, 0x00, 0x1c, 0x09, 0x00, 0x00, 0xfd, 0x05, 0x00, 0x00, 0xf2, 0xeb, 0xff, 0xff, 0x04, 0x00, 0x00, 0x00, 0x20, 0x01, 0x00, 0x00, 0x6b, 0xf1, 0xf4, 0x1a, 0xfc, 0x7c, 0x17, 0x0c, 0x5a, 0x36, 0xf5, 0xab, 0xdb, 0xd6, 0x2d, 0xa3, 0xec, 0x81, 0x35, 0x0c, 0xcc, 0x7f, 0x51, 0x7f, 0x11, 0x23, 0xb2, 0xf4, 0x39, 0xbd, 0xf3, 0xb5, 0x7f, 0x10, 0x14, 0x70, 0xd8, 0x83, 0x81, 0x10, 0x7f, 0xcf, 0xf4, 0x81, 0x36, 0x1d, 0xd5, 0xdc, 0x68, 0x6d, 0xb8, 0x2f, 0xec, 0xe9, 0xe6, 0x0d, 0xd4, 0x81, 0xe7, 0x03, 0x0c, 0xc3, 0xf1, 0x81, 0x14, 0x7f, 0x9d, 0xc6, 0xfc, 0x5d, 0xb7, 0xc3, 0xf2, 0xed, 0x08, 0xcb, 0x40, 0xf4, 0xfb, 0x4c, 0x81, 0x0c, 0xc9, 0x03, 0x25, 0x1f, 0x81, 0x4c, 0xe2, 0x0d, 0xea, 0x81, 0x02, 0x81, 0x01, 0xda, 0x6c, 0x14, 0x9b, 0x9b, 0x45, 0x7f, 0x75, 0x81, 0x2f, 0x81, 0x22, 0xbc, 0xb7, 0xe7, 0xe1, 0xea, 0xfc, 0xf7, 0x54, 0x0b, 0xe8, 0x4a, 0x37, 0x39, 0xa4, 0x49, 0xfc, 0x89, 0x1e, 0x07, 0xe3, 0xfa, 0x17, 0xf6, 0x08, 0x63, 0x16, 0xcc, 0x41, 0x29, 0x12, 0xb8, 0xe4, 0xe4, 0x7f, 0x34, 0x42, 0xf8, 0x2a, 0x60, 0x1c, 0xf5, 0x2f, 0x1d, 0x08, 0x16, 0x81, 0x97, 0x8f, 0xd8, 0x0c, 0x0f, 0xdc, 0xb4, 0x61, 0x4c, 0xb7, 0xbb, 0x3a, 0x44, 0x09, 0xed, 0xb6, 0xbb, 0x03, 0xce, 0x13, 0x22, 0xea, 0x3a, 0xee, 0x14, 0x09, 0x32, 0x48, 0xf4, 0xd2, 0x18, 0x1e, 0xbb, 0xf5, 0xac, 0x02, 0xfe, 0x02, 0x18, 0x58, 0x7a, 0x81, 0x81, 0x4e, 0x72, 0x5a, 0xca, 0x2a, 0x82, 0x7f, 0x82, 0x20, 0x81, 0x9a, 0x81, 0x81, 0xfa, 0x7f, 0xf9, 0xbc, 0x12, 0x15, 0xda, 0xd9, 0x6f, 0x81, 0xa9, 0x7f, 0x36, 0x81, 0x2a, 0x59, 0xad, 0xd7, 0x25, 0x7f, 0xd0, 0x64, 0xda, 0x5e, 0xc8, 0xff, 0xe9, 0x63, 0x18, 0x7f, 0xdd, 0xf5, 0x4e, 0x24, 0xd9, 0x2b, 0x2c, 0xbd, 0x03, 0xba, 0x94, 0xaa, 0xcc, 0x2a, 0x41, 0x8d, 0x00, 0x19, 0x43, 0xd1, 0x19, 0x38, 0x23, 0x5b, 0x79, 0x23, 0x8a, 0xb3, 0xd9, 0x11, 0x25, 0xc1, 0xfc, 0x8f, 0x12, 0x63, 0x7f, 0x7f, 0xea, 0xf3, 0xc3, 0x39, 0xd7, 0x17, 0x1e, 0xfd, 0x3d, 0x02, 0x51, 0x1e, 0xed, 0xff, 0xff, 0x04, 0x00, 0x00, 0x00, 0x80, 0x00, 0x00, 0x00, 0x19, 0xe9, 0xff, 0xff, 0x68, 0xf8, 0xff, 0xff, 0x18, 0x0e, 0x00, 0x00, 0x47, 0x01, 0x00, 0x00, 0xfc, 0xf6, 0xff, 0xff, 0x19, 0xfe, 0xff, 0xff, 0x4c, 0xf8, 0xff, 0xff, 0x99, 0x04, 0x00, 0x00, 0x77, 0xf8, 0xff, 0xff, 0x06, 0x12, 0x00, 0x00, 0x0a, 0x00, 0x00, 0x00, 0x7a, 0x15, 0x00, 0x00, 0x87, 0xff, 0xff, 0xff, 0x2b, 0xff, 0xff, 0xff, 0xf5, 0x01, 0x00, 0x00, 0xd3, 0x06, 0x00, 0x00, 0x19, 0x09, 0x00, 0x00, 0x15, 0xfb, 0xff, 0xff, 0x82, 0xfb, 0xff, 0xff, 0xea, 0xf9, 0xff, 0xff, 0xb6, 0xfa, 0xff, 0xff, 0x2b, 0xf7, 0xff, 0xff, 0xe2, 0x02, 0x00, 0x00, 0xbd, 0xf8, 0xff, 0xff, 0x8c, 0x09, 0x00, 0x00, 0x20, 0x08, 0x00, 0x00, 0x3c, 0x05, 0x00, 0x00, 0xc8, 0x10, 0x00, 0x00, 0x25, 0xfb, 0xff, 0xff, 0x0f, 0x05, 0x00, 0x00, 0x50, 0x0b, 0x00, 0x00, 0x8f, 0x08, 0x00, 0x00, 0xaa, 0xed, 0xff, 0xff, 0x04, 0x00, 0x00, 0x00, 0x00, 0x04, 0x00, 0x00, 0x26, 0x1f, 0xa9, 0xf9, 0xa9, 0x13, 0x18, 0xf0, 0xb1, 0xef, 0x11, 0x04, 0x0f, 0x17, 0xd6, 0xf6, 0xf4, 0x2b, 0x81, 0x48, 0x3e, 0xdc, 0x0e, 0x00, 0x32, 0xf9, 0x20, 0xf7, 0x29, 0x1f, 0xaa, 0xfa, 0xe3, 0x24, 0x23, 0x0e, 0xd3, 0xf9, 0xe1, 0x7f, 0xe9, 0xc2, 0x3d, 0xa3, 0x30, 0x23, 0xea, 0x37, 0x08, 0x21, 0xb9, 0xc9, 0xfa, 0xc3, 0x24, 0xb0, 0x05, 0xf8, 0xf0, 0x38, 0x00, 0x01, 0x50, 0xf3, 0xc6, 0xea, 0xd7, 0xa6, 0xb8, 0xea, 0xf9, 0x81, 0x67, 0x23, 0x50, 0x09, 0xb1, 0xe2, 0x29, 0xc7, 0xcd, 0x1a, 0xb6, 0x02, 0x52, 0x87, 0xe5, 0xb6, 0xd2, 0xd1, 0x97, 0xe3, 0xf7, 0x07, 0x1e, 0x3c, 0x19, 0xb5, 0xd1, 0x81, 0xf2, 0x52, 0xb8, 0xda, 0x0c, 0x03, 0xf6, 0xbc, 0x15, 0xd5, 0x53, 0xf3, 0x4e, 0xe3, 0xeb, 0xf4, 0x13, 0xed, 0x04, 0xc6, 0xe7, 0x01, 0x28, 0x08, 0x2d, 0x06, 0xe8, 0x07, 0x32, 0xc4, 0x15, 0xfc, 0xe6, 0xca, 0xce, 0x33, 0xdd, 0x33, 0x92, 0x07, 0xcf, 0x7c, 0x20, 0xe2, 0xfc, 0xbd, 0x0c, 0x04, 0xbe, 0xe5, 0x30, 0xec, 0x7f, 0xe7, 0x34, 0x36, 0x52, 0xeb, 0x83, 0x00, 0x06, 0x1c, 0xd1, 0xd8, 0xc4, 0xe5, 0xba, 0x1b, 0xeb, 0xbf, 0xa3, 0xf7, 0x4a, 0x08, 0x2a, 0xbd, 0x6b, 0x92, 0xd8, 0xd6, 0x89, 0xfa, 0x2b, 0x0a, 0xfe, 0x2e, 0x2c, 0x1b, 0x2e, 0xad, 0xfb, 0x81, 0x11, 0xfc, 0x12, 0x43, 0xc3, 0x99, 0xf0, 0x0e, 0xbf, 0x3e, 0x01, 0x2a, 0xf0, 0x20, 0x07, 0x5b, 0xdd, 0x31, 0xca, 0x3a, 0x3e, 0x09, 0x3e, 0x06, 0xce, 0x7f, 0x1c, 0xe9, 0xc7, 0xab, 0xc2, 0xcc, 0x3a, 0xd4, 0xe6, 0xcb, 0xe2, 0x90, 0x33, 0x1e, 0xd7, 0xc7, 0x0a, 0x4f, 0xf2, 0xf0, 0x92, 0x35, 0x38, 0x18, 0xf2, 0xb4, 0xd9, 0x26, 0x25, 0x0e, 0xeb, 0xfe, 0x32, 0xe3, 0xcd, 0xd6, 0xcb, 0x81, 0x46, 0xe2, 0xed, 0x1d, 0xcd, 0xdf, 0xcd, 0x22, 0x02, 0xa9, 0xf6, 0xe8, 0x00, 0xee, 0xe4, 0xba, 0x17, 0x97, 0x36, 0x43, 0xea, 0x5b, 0x37, 0xe8, 0x69, 0x66, 0xa1, 0xcb, 0x22, 0xd8, 0x21, 0x81, 0x23, 0x28, 0x76, 0x04, 0x12, 0xd7, 0x37, 0xe6, 0xda, 0x56, 0xf5, 0x7f, 0xb8, 0x37, 0xf3, 0x3a, 0x59, 0x3f, 0x21, 0x19, 0x19, 0xfd, 0x53, 0xfc, 0x1a, 0x12, 0xfa, 0x2a, 0x27, 0xd4, 0xe7, 0xa2, 0x22, 0x3d, 0x1a, 0x94, 0xf3, 0xb6, 0x0c, 0xf3, 0x0d, 0x63, 0xec, 0x3c, 0x3f, 0x25, 0x4b, 0xc4, 0xeb, 0xfd, 0xf3, 0x27, 0xfe, 0x81, 0xeb, 0xb5, 0x08, 0xd8, 0xde, 0x7a, 0xd2, 0xfb, 0xb8, 0xae, 0x2f, 0x01, 0xfa, 0x1b, 0xec, 0x4d, 0xfe, 0xd8, 0xc2, 0x62, 0x98, 0x72, 0x05, 0x57, 0xef, 0x10, 0x44, 0x56, 0x54, 0x01, 0xc7, 0xde, 0x27, 0x09, 0x81, 0xda, 0x37, 0x28, 0x33, 0x13, 0x1d, 0x85, 0x2d, 0xe1, 0x24, 0xd7, 0x25, 0xcf, 0xf2, 0xec, 0x04, 0x27, 0xe3, 0x7f, 0xec, 0xee, 0x0f, 0xf5, 0x37, 0x1e, 0xf0, 0xd2, 0x19, 0xee, 0x37, 0x0d, 0x10, 0x15, 0x2b, 0xf2, 0xe2, 0x0d, 0xe1, 0x18, 0xfb, 0x30, 0x37, 0x13, 0x08, 0x46, 0xb9, 0xdc, 0xe3, 0xbb, 0xff, 0x9f, 0xf4, 0xe1, 0x53, 0x6a, 0x01, 0x13, 0x92, 0xe6, 0x07, 0x96, 0xba, 0xef, 0xb8, 0xe2, 0x7f, 0xb9, 0x95, 0x91, 0x47, 0x18, 0xf4, 0xd7, 0xc4, 0xdc, 0x2b, 0x02, 0xa0, 0xea, 0xd8, 0x0a, 0xae, 0xb7, 0x1b, 0x10, 0xda, 0xdc, 0x9a, 0xe4, 0x1d, 0x17, 0xf9, 0xeb, 0x0d, 0xc9, 0xcb, 0x2f, 0x7f, 0x25, 0xcf, 0xfb, 0x4d, 0x1d, 0xff, 0x01, 0xaf, 0xb5, 0xe0, 0xd8, 0xd1, 0x45, 0x57, 0xe7, 0x24, 0x29, 0xf7, 0x3c, 0xe0, 0x2c, 0x7f, 0x25, 0x17, 0xeb, 0x22, 0x02, 0x34, 0x2f, 0xb5, 0x1d, 0x10, 0xf8, 0x1a, 0x08, 0x0d, 0xe4, 0xee, 0x1a, 0xd8, 0x11, 0x29, 0x3e, 0xef, 0xe9, 0xf6, 0x35, 0x1b, 0x74, 0xa0, 0xf0, 0x25, 0x81, 0x32, 0x29, 0x23, 0xa4, 0xb6, 0xaa, 0x1f, 0xdc, 0xa7, 0x4f, 0x06, 0xfd, 0xee, 0xd7, 0x55, 0xe6, 0x81, 0x8f, 0xa1, 0xad, 0xe7, 0xc2, 0x2f, 0x00, 0xd6, 0x0b, 0x2e, 0x1e, 0xd2, 0xcd, 0x0d, 0x0e, 0x44, 0xe3, 0x1e, 0xc5, 0xa5, 0x72, 0xed, 0xea, 0xf6, 0xf1, 0xfa, 0xfe, 0xf0, 0xc1, 0xe6, 0x20, 0xd3, 0x2c, 0xf4, 0x14, 0xc5, 0x46, 0xf6, 0x42, 0xf6, 0xe5, 0xf4, 0xd2, 0x37, 0xef, 0x81, 0xe8, 0x1d, 0x1f, 0xeb, 0xe0, 0x63, 0x2f, 0x0d, 0x03, 0x39, 0xde, 0x22, 0x3b, 0x28, 0x11, 0x3e, 0xd5, 0x8f, 0x1c, 0x1c, 0xf4, 0xf0, 0x18, 0xf9, 0x04, 0xb6, 0x26, 0xbd, 0xc2, 0x11, 0xd7, 0x36, 0x15, 0x06, 0x06, 0xbb, 0xf1, 0xf8, 0xb7, 0x81, 0xe6, 0xe0, 0xe5, 0x6d, 0x18, 0xd7, 0xce, 0xeb, 0xe0, 0xcb, 0xd1, 0x05, 0xb9, 0x3d, 0xcc, 0x54, 0xed, 0xf1, 0xcb, 0x5d, 0x81, 0x4f, 0xbd, 0x24, 0x78, 0x58, 0x8d, 0x09, 0x11, 0x06, 0x0c, 0x02, 0x19, 0x6d, 0xd5, 0xfc, 0xdf, 0x4a, 0x32, 0xf8, 0xf6, 0x4c, 0x0e, 0x5c, 0xb5, 0x5a, 0x49, 0x42, 0x25, 0xa2, 0x13, 0xa0, 0xb3, 0x3a, 0xdc, 0x55, 0x22, 0xdd, 0xf8, 0xdc, 0xc9, 0x22, 0xce, 0x04, 0x14, 0xed, 0x70, 0x35, 0x7f, 0x01, 0x4d, 0xfb, 0x0f, 0xcb, 0xde, 0x5a, 0xd1, 0x47, 0xf0, 0xf9, 0xce, 0xfe, 0x48, 0x27, 0x7f, 0x1d, 0x2b, 0xec, 0xe0, 0x17, 0x3f, 0x4c, 0x09, 0xee, 0x34, 0x04, 0x11, 0xfd, 0xe4, 0x36, 0x49, 0x25, 0x7d, 0xac, 0xf9, 0xe7, 0x61, 0x3d, 0x28, 0xa2, 0x51, 0x45, 0xec, 0xfd, 0xb8, 0xc5, 0x05, 0xbb, 0xf9, 0x01, 0x03, 0xf5, 0x7f, 0xfb, 0x10, 0x4d, 0x70, 0xaf, 0xf4, 0xf3, 0x32, 0xcc, 0x36, 0x11, 0xe6, 0x0d, 0x06, 0x16, 0x19, 0x42, 0x28, 0xee, 0xdd, 0xe5, 0x2d, 0xe3, 0xf3, 0x0f, 0x26, 0x09, 0x18, 0xf3, 0x38, 0x19, 0xf6, 0x09, 0xe8, 0xf5, 0xc7, 0x30, 0xb8, 0xe7, 0x2e, 0xf7, 0x2e, 0x08, 0xbd, 0xf9, 0x81, 0x7f, 0xd6, 0x22, 0x13, 0xb8, 0x1a, 0x03, 0x1d, 0x1f, 0x01, 0xfe, 0xe7, 0xf3, 0x1b, 0xd9, 0x15, 0x34, 0xe6, 0x1a, 0x33, 0x51, 0xa5, 0x22, 0x01, 0xdb, 0xd8, 0xe9, 0x33, 0x3c, 0x4a, 0xe5, 0x19, 0x16, 0xdf, 0xfd, 0x08, 0xe1, 0x26, 0xb6, 0xfc, 0x0f, 0x12, 0xe9, 0xd5, 0xe3, 0xdb, 0x51, 0x2b, 0x09, 0x06, 0xbe, 0xff, 0x40, 0xcd, 0xc3, 0x02, 0xec, 0x07, 0x02, 0xdc, 0x81, 0xeb, 0x9e, 0xfc, 0x0f, 0xe8, 0x38, 0x3b, 0x13, 0x8d, 0xe4, 0x13, 0x3d, 0xd6, 0x01, 0x10, 0x05, 0xe7, 0x35, 0xbd, 0x02, 0xaf, 0xd6, 0xbc, 0x19, 0x12, 0xd9, 0x49, 0xe5, 0xa6, 0xca, 0x81, 0x26, 0xaa, 0x34, 0x05, 0x24, 0x14, 0xda, 0x4d, 0xdf, 0x7f, 0x25, 0x36, 0xcb, 0x07, 0x15, 0xea, 0x39, 0x10, 0xe1, 0x1a, 0xe3, 0x53, 0xff, 0x0e, 0x12, 0x1c, 0x23, 0x1b, 0xe9, 0xd9, 0x10, 0x33, 0x61, 0xa9, 0x51, 0xce, 0x08, 0x69, 0xba, 0xa1, 0xde, 0xb6, 0x07, 0xd9, 0x02, 0x08, 0xe0, 0x9f, 0x19, 0x4f, 0x27, 0x81, 0x01, 0xc7, 0xc6, 0x08, 0x5b, 0xc4, 0x07, 0x86, 0x9d, 0x14, 0xf6, 0x70, 0x9a, 0xca, 0xc2, 0xb9, 0x11, 0xce, 0x42, 0x1f, 0x0d, 0xed, 0x60, 0x37, 0x1d, 0x4a, 0x7f, 0x66, 0xd3, 0xd9, 0x22, 0xff, 0xfa, 0xab, 0xf0, 0x87, 0x3f, 0xfb, 0x41, 0x11, 0xed, 0xbf, 0xd1, 0xb9, 0x2f, 0x17, 0x48, 0x5c, 0x19, 0x10, 0x1d, 0xff, 0x16, 0x04, 0x0d, 0xfa, 0x0c, 0x07, 0xa8, 0xf7, 0xf6, 0x00, 0xd6, 0xcd, 0x20, 0xa2, 0xfb, 0x00, 0x3f, 0xd7, 0xe5, 0xf7, 0x31, 0xf5, 0x03, 0x00, 0xe9, 0xeb, 0x81, 0xf9, 0xb6, 0xf1, 0xff, 0xff, 0x04, 0x00, 0x00, 0x00, 0x80, 0x00, 0x00, 0x00, 0xea, 0x08, 0x00, 0x00, 0x8e, 0xfe, 0xff, 0xff, 0xe7, 0x18, 0x00, 0x00, 0xf1, 0x07, 0x00, 0x00, 0x4a, 0x04, 0x00, 0x00, 0x10, 0x21, 0x00, 0x00, 0xfb, 0x04, 0x00, 0x00, 0x09, 0x22, 0x00, 0x00, 0x2f, 0x16, 0x00, 0x00, 0x67, 0xe6, 0xff, 0xff, 0x37, 0x32, 0x00, 0x00, 0x92, 0xf3, 0xff, 0xff, 0x96, 0xf6, 0xff, 0xff, 0x15, 0x0f, 0x00, 0x00, 0xf9, 0x0d, 0x00, 0x00, 0xbf, 0xf3, 0xff, 0xff, 0x40, 0x0a, 0x00, 0x00, 0x1e, 0x26, 0x00, 0x00, 0x85, 0x04, 0x00, 0x00, 0xee, 0x0a, 0x00, 0x00, 0x85, 0x06, 0x00, 0x00, 0x5e, 0xe3, 0xff, 0xff, 0x88, 0xe0, 0xff, 0xff, 0xfa, 0xf9, 0xff, 0xff, 0x5d, 0x05, 0x00, 0x00, 0x83, 0xf9, 0xff, 0xff, 0x57, 0x16, 0x00, 0x00, 0x27, 0x14, 0x00, 0x00, 0xe6, 0xf6, 0xff, 0xff, 0xc4, 0x32, 0x00, 0x00, 0xbc, 0xe5, 0xff, 0xff, 0xac, 0x0d, 0x00, 0x00, 0x42, 0xf2, 0xff, 0xff, 0x04, 0x00, 0x00, 0x00, 0x20, 0x01, 0x00, 0x00, 0x81, 0x4e, 0x81, 0x1d, 0x2d, 0x86, 0x05, 0x67, 0x22, 0x7f, 0xb6, 0x02, 0x81, 0x2e, 0x49, 0x0c, 0x03, 0x48, 0x53, 0x25, 0x61, 0xd4, 0x19, 0xf8, 0x7f, 0x7f, 0x81, 0x2e, 0xcb, 0x83, 0xb5, 0x46, 0xd3, 0x3e, 0xae, 0x75, 0x60, 0xd0, 0x16, 0x7f, 0xfb, 0x09, 0x3d, 0xbc, 0xb9, 0x73, 0x40, 0xc8, 0x98, 0x04, 0xa3, 0x02, 0x5e, 0xf4, 0x2b, 0x7f, 0x7d, 0x0c, 0x52, 0x0c, 0xab, 0x4e, 0xdd, 0x0b, 0xfc, 0x33, 0xc9, 0xe3, 0x37, 0x6b, 0xf4, 0x29, 0xff, 0xfc, 0x7f, 0xc7, 0xcf, 0x35, 0x4d, 0x94, 0xe0, 0x59, 0x1a, 0x0f, 0x04, 0xd5, 0x43, 0x11, 0xed, 0xcd, 0xea, 0x0e, 0x52, 0x37, 0xc3, 0x3e, 0xc0, 0x7f, 0xe6, 0x7f, 0x2a, 0x01, 0x43, 0xe1, 0xc3, 0x11, 0x29, 0xc7, 0xd5, 0xc7, 0x3e, 0xac, 0xc6, 0x2f, 0xf0, 0x3a, 0xfa, 0xfd, 0x2b, 0x05, 0xfe, 0x38, 0x35, 0xf7, 0x13, 0xa5, 0xe9, 0x48, 0xfb, 0x07, 0xf5, 0x3d, 0x20, 0x1c, 0xfb, 0xfc, 0xfe, 0x14, 0x41, 0xec, 0xd8, 0x25, 0x1c, 0x81, 0x0e, 0x41, 0x05, 0x01, 0x4a, 0x22, 0x7f, 0x15, 0x14, 0x28, 0x5a, 0xdd, 0x05, 0xe4, 0x0a, 0x11, 0x1a, 0x39, 0xbe, 0x4d, 0xf4, 0x2f, 0x0a, 0x0a, 0x0b, 0x17, 0x18, 0x92, 0xeb, 0xeb, 0x13, 0xf7, 0xf7, 0x15, 0xfe, 0xfd, 0x7f, 0x81, 0x49, 0x0c, 0xfb, 0xaa, 0xe6, 0xea, 0x05, 0x17, 0xf6, 0x1a, 0x2d, 0x58, 0xc6, 0x6b, 0x7f, 0x02, 0x7f, 0xff, 0x81, 0x3d, 0x44, 0x81, 0x18, 0x90, 0x7f, 0xe0, 0x81, 0x0a, 0x29, 0x7f, 0xea, 0xd5, 0x10, 0xed, 0x46, 0x3e, 0x73, 0x81, 0x7f, 0x17, 0xf2, 0x7f, 0x43, 0x40, 0xd2, 0x32, 0x5b, 0x7f, 0x0f, 0x16, 0xb0, 0x28, 0x3c, 0x16, 0x38, 0x7f, 0x20, 0xaa, 0xeb, 0x7f, 0x81, 0xf5, 0x33, 0x5f, 0x50, 0x3d, 0x2b, 0xdf, 0x49, 0xc0, 0xf8, 0x81, 0x81, 0x3f, 0x09, 0x4c, 0xf7, 0x75, 0xf2, 0xe8, 0x25, 0x21, 0xb0, 0x27, 0xc6, 0xf2, 0xed, 0xab, 0x2a, 0x37, 0xf0, 0x16, 0x4b, 0x09, 0x05, 0xb8, 0xd6, 0x4b, 0x08, 0xa4, 0xf0, 0xe4, 0xbb, 0x4d, 0x0d, 0x29, 0x6e, 0xf3, 0xff, 0xff, 0x04, 0x00, 0x00, 0x00, 0x80, 0x00, 0x00, 0x00, 0x2b, 0x02, 0x00, 0x00, 0x81, 0xee, 0xff, 0xff, 0x7b, 0x1d, 0x00, 0x00, 0xde, 0xec, 0xff, 0xff, 0x60, 0xf5, 0xff, 0xff, 0xb8, 0xef, 0xff, 0xff, 0xe0, 0xf4, 0xff, 0xff, 0x83, 0xed, 0xff, 0xff, 0x3f, 0x15, 0x00, 0x00, 0x21, 0xf5, 0xff, 0xff, 0xb5, 0xe6, 0xff, 0xff, 0x1f, 0x16, 0x00, 0x00, 0x8b, 0x16, 0x00, 0x00, 0x8d, 0xf8, 0xff, 0xff, 0x48, 0xeb, 0xff, 0xff, 0xf0, 0x17, 0x00, 0x00, 0xf4, 0x11, 0x00, 0x00, 0x44, 0xe1, 0xff, 0xff, 0xd9, 0x00, 0x00, 0x00, 0x45, 0xfb, 0xff, 0xff, 0x6c, 0xee, 0xff, 0xff, 0xb3, 0x06, 0x00, 0x00, 0xb2, 0xf1, 0xff, 0xff, 0xc7, 0xf3, 0xff, 0xff, 0x3e, 0xeb, 0xff, 0xff, 0xa8, 0x09, 0x00, 0x00, 0x28, 0xed, 0xff, 0xff, 0xfb, 0x11, 0x00, 0x00, 0xa3, 0x03, 0x00, 0x00, 0xd6, 0x09, 0x00, 0x00, 0xe4, 0x16, 0x00, 0x00, 0x82, 0xe9, 0xff, 0xff, 0xfa, 0xf3, 0xff, 0xff, 0x04, 0x00, 0x00, 0x00, 0x00, 0x04, 0x00, 0x00, 0xe5, 0x20, 0x81, 0xd8, 0x3a, 0x51, 0x42, 0xb9, 0xc5, 0xc8, 0xd8, 0x35, 0x33, 0x5e, 0x2d, 0x70, 0x35, 0x94, 0xc4, 0x2d, 0xc8, 0xff, 0x15, 0xe9, 0xc8, 0x1a, 0x1c, 0x54, 0x19, 0x00, 0x64, 0x28, 0x66, 0x06, 0x16, 0xd1, 0x0e, 0xdf, 0xa6, 0xb4, 0xf1, 0xef, 0xae, 0x12, 0xb1, 0x49, 0x61, 0x04, 0x3c, 0x52, 0x42, 0x7f, 0xe3, 0xf0, 0xdb, 0xda, 0xfd, 0x08, 0x20, 0xba, 0xe1, 0xed, 0x2c, 0xca, 0xdf, 0xf0, 0xd2, 0x69, 0x43, 0xfa, 0xed, 0x81, 0x04, 0x0a, 0x1b, 0x0d, 0x18, 0xe3, 0xc2, 0x37, 0xd9, 0x3e, 0x0a, 0x41, 0xfc, 0x61, 0xdd, 0x02, 0x22, 0xff, 0xd6, 0x34, 0x01, 0xe2, 0x14, 0x16, 0x12, 0xce, 0x24, 0x0a, 0x1c, 0x08, 0x4c, 0x2a, 0x18, 0x20, 0x3e, 0x39, 0xf0, 0xd0, 0x26, 0x1f, 0xe9, 0x4c, 0x08, 0xdd, 0x2a, 0xee, 0x15, 0xcc, 0x69, 0xfe, 0x01, 0x81, 0xf6, 0x95, 0x1b, 0xc7, 0x17, 0x08, 0x81, 0xa7, 0x1e, 0x3d, 0x1a, 0x9f, 0xa3, 0xfd, 0xfa, 0x1a, 0x23, 0xf1, 0xd9, 0xe6, 0xf9, 0xd8, 0x9d, 0x36, 0xbb, 0xdf, 0x1b, 0x59, 0x0f, 0xf1, 0xee, 0xea, 0xdd, 0xd7, 0x1b, 0xdb, 0x43, 0x2f, 0xe9, 0x34, 0x13, 0x2e, 0xce, 0x8f, 0xf4, 0x81, 0x1b, 0xe8, 0xf5, 0x26, 0xeb, 0xe0, 0x1a, 0x2a, 0xe6, 0x23, 0xea, 0x03, 0xfa, 0xcc, 0xf0, 0x26, 0x1a, 0xf9, 0xf9, 0x34, 0xee, 0x1f, 0x29, 0x93, 0x0a, 0x16, 0x11, 0xcb, 0xd6, 0xbd, 0xdb, 0xb4, 0x55, 0x19, 0x03, 0x7f, 0x24, 0xfa, 0x0e, 0x13, 0x00, 0x1f, 0xce, 0xb9, 0xe0, 0xf9, 0x39, 0x5a, 0xf2, 0x17, 0xdc, 0xbf, 0x1b, 0x2d, 0x19, 0x1b, 0xfc, 0xca, 0xb2, 0x0f, 0x48, 0xe4, 0xa1, 0x49, 0x08, 0x16, 0x0e, 0x33, 0xec, 0x50, 0xbb, 0x7f, 0xeb, 0x57, 0xe1, 0x06, 0x05, 0x13, 0x47, 0x29, 0xb2, 0xd1, 0xc3, 0x42, 0xcd, 0x22, 0x4a, 0x2e, 0x10, 0x19, 0x1f, 0x81, 0x00, 0xca, 0x33, 0x97, 0x9f, 0x75, 0xa1, 0xc3, 0xd2, 0x0b, 0xc2, 0xc0, 0x01, 0x15, 0xf8, 0x3e, 0xc1, 0xa4, 0x22, 0xcc, 0x63, 0xd5, 0xb5, 0x8d, 0x3a, 0xee, 0xe8, 0xb1, 0xcc, 0xd3, 0x81, 0x19, 0x6a, 0x6d, 0x4a, 0x04, 0xdb, 0x0c, 0xac, 0xfa, 0x2b, 0x16, 0xc8, 0x0f, 0xd1, 0xa0, 0x21, 0xee, 0xfe, 0x77, 0x39, 0x1d, 0xbf, 0x89, 0x82, 0x3e, 0x22, 0x2c, 0x21, 0x5a, 0x43, 0x55, 0xbf, 0xaf, 0x61, 0xc8, 0xdf, 0xef, 0x00, 0xb5, 0x69, 0x09, 0x30, 0xfa, 0x19, 0x4b, 0x0e, 0x87, 0xe5, 0x3d, 0xb4, 0xe5, 0x03, 0x0a, 0x10, 0x81, 0x1f, 0x31, 0x17, 0xed, 0x12, 0xca, 0x0f, 0x09, 0xc3, 0xa8, 0x01, 0xf1, 0x4e, 0x8f, 0xe8, 0x11, 0xe2, 0x1f, 0xf1, 0xe7, 0x0c, 0x08, 0x0c, 0xd2, 0x07, 0xe2, 0x2f, 0xf8, 0x81, 0x99, 0x24, 0xdb, 0x2a, 0x0a, 0xc4, 0x05, 0x4a, 0xf6, 0xd3, 0x05, 0xad, 0xd3, 0x08, 0x4f, 0xce, 0xdb, 0xf7, 0x53, 0x2f, 0xc5, 0xb2, 0xe7, 0x08, 0x84, 0x20, 0x81, 0x03, 0xe5, 0x18, 0xc6, 0x2a, 0xd1, 0xd5, 0xf8, 0x00, 0x4d, 0xcc, 0x16, 0x07, 0x5f, 0x13, 0xc4, 0x28, 0xbc, 0xd0, 0x09, 0x81, 0x11, 0xf7, 0x24, 0x3d, 0x22, 0x08, 0xd4, 0x3e, 0xec, 0xe9, 0xdf, 0xb6, 0x0a, 0xc3, 0x16, 0xe4, 0x25, 0xa4, 0xfd, 0x52, 0x33, 0xe9, 0x2d, 0x56, 0x28, 0x0a, 0xe4, 0x5f, 0xb3, 0x0a, 0xb7, 0xc1, 0xed, 0xe9, 0x09, 0xad, 0xdd, 0x81, 0x67, 0x55, 0xa2, 0xd7, 0x9d, 0x86, 0x37, 0x13, 0xf9, 0x19, 0xf0, 0x0c, 0x76, 0xd9, 0x1b, 0xdb, 0xfa, 0x41, 0x7f, 0xe0, 0xa9, 0xd1, 0x35, 0x27, 0xb2, 0x95, 0xde, 0x1e, 0xe9, 0x1f, 0xf3, 0x37, 0x88, 0x1c, 0x2c, 0x33, 0xbb, 0xbb, 0x59, 0xd3, 0x21, 0xeb, 0xac, 0x3b, 0xa9, 0x21, 0x9a, 0x43, 0x0d, 0x06, 0xd0, 0x3b, 0x0e, 0x26, 0x27, 0x12, 0xd8, 0xb2, 0x0d, 0x30, 0x7f, 0x40, 0x5b, 0x55, 0x0e, 0xb9, 0x50, 0xfa, 0x55, 0x0a, 0x23, 0xd4, 0xc6, 0x5d, 0x4e, 0x08, 0x26, 0xa7, 0x3a, 0x69, 0x89, 0x74, 0x44, 0xdb, 0xfd, 0x36, 0x94, 0x0f, 0xb8, 0xc1, 0xf1, 0xfa, 0xd5, 0x63, 0x13, 0x0e, 0x15, 0xc1, 0xc7, 0x2e, 0x41, 0x1f, 0x23, 0x08, 0xf6, 0xe4, 0x20, 0xfd, 0x11, 0xa0, 0x7f, 0x22, 0x63, 0xf9, 0x56, 0x1a, 0xd3, 0xf7, 0x02, 0x81, 0x10, 0xd9, 0x08, 0x16, 0x0c, 0x28, 0xfe, 0xd0, 0x31, 0xc3, 0x39, 0x0d, 0xce, 0xff, 0x0f, 0x08, 0xec, 0x00, 0x21, 0x42, 0xcf, 0x20, 0x08, 0xbf, 0xe5, 0xe7, 0xfc, 0x0c, 0xf0, 0x1f, 0xd5, 0xf7, 0xda, 0xee, 0x0d, 0x3a, 0x91, 0xd4, 0x1e, 0x17, 0xd4, 0x4a, 0xd9, 0xe6, 0xd2, 0x81, 0xc9, 0xd8, 0x3b, 0x1d, 0x12, 0xc9, 0x0d, 0x28, 0x16, 0x49, 0xe0, 0xe8, 0x27, 0xa2, 0x24, 0x23, 0xd8, 0x74, 0x1c, 0x81, 0x30, 0x16, 0x97, 0x4f, 0x5f, 0x3d, 0x31, 0x2f, 0xf4, 0xcd, 0x08, 0x25, 0x07, 0x93, 0xc5, 0xee, 0xd3, 0xa7, 0x23, 0x14, 0x32, 0x30, 0xcb, 0x15, 0x57, 0xea, 0xcd, 0x11, 0x2d, 0x60, 0xcd, 0xad, 0xf6, 0x47, 0x77, 0x7f, 0xe2, 0x3a, 0x26, 0x6c, 0xae, 0xf0, 0xec, 0xda, 0x09, 0xd6, 0xc3, 0xa1, 0xb8, 0x0f, 0xb0, 0x0d, 0xfe, 0x5b, 0xda, 0xdd, 0x1e, 0x20, 0xf0, 0x33, 0x0f, 0x13, 0x02, 0xdc, 0x1f, 0x05, 0xfe, 0x19, 0xb1, 0x91, 0xe2, 0xf8, 0xee, 0xa5, 0xf9, 0xec, 0xca, 0xd0, 0x25, 0x4a, 0x3f, 0x09, 0xeb, 0x81, 0x52, 0xf3, 0xce, 0xcf, 0x49, 0xce, 0x23, 0xe5, 0x4f, 0x30, 0xf8, 0xd1, 0x81, 0x52, 0xb6, 0x34, 0x1f, 0xfb, 0xf9, 0x18, 0x1b, 0xe4, 0x2f, 0xee, 0x46, 0xbb, 0x06, 0xe5, 0xe0, 0xe1, 0xc9, 0xd4, 0x29, 0xc4, 0x50, 0xdc, 0x3e, 0xfb, 0x2d, 0xf5, 0x40, 0xa9, 0xcd, 0xc9, 0x09, 0xf7, 0xf9, 0x59, 0x79, 0x4e, 0xff, 0x4f, 0x1e, 0x7f, 0xfc, 0x9d, 0xef, 0x85, 0xb2, 0xba, 0x35, 0x4a, 0xe6, 0xcd, 0xf1, 0xbe, 0xfb, 0x4c, 0x34, 0xdd, 0x06, 0x20, 0x22, 0x15, 0xc1, 0xc7, 0x3d, 0xcd, 0xd6, 0x25, 0x34, 0x35, 0x37, 0x2c, 0x7f, 0x04, 0x0e, 0xfa, 0x55, 0xed, 0x23, 0x42, 0x06, 0x2c, 0xdd, 0x1a, 0x37, 0x07, 0x30, 0x11, 0x39, 0x81, 0xad, 0x30, 0x0f, 0xf8, 0xe8, 0xc1, 0x29, 0xf7, 0x5d, 0x03, 0xde, 0x65, 0x01, 0x25, 0x13, 0xf0, 0x44, 0xd9, 0x20, 0xe0, 0xd3, 0x19, 0xff, 0x35, 0xb5, 0x1c, 0xe3, 0xca, 0xc4, 0x30, 0xd0, 0x18, 0x5f, 0xc7, 0xb5, 0xfd, 0x0c, 0x27, 0xec, 0xc4, 0x9e, 0x03, 0xe7, 0xc0, 0xe5, 0xee, 0xab, 0x49, 0xe6, 0x46, 0x81, 0x17, 0x12, 0x98, 0xb7, 0xea, 0xa5, 0x10, 0xe8, 0xc0, 0xe6, 0x2c, 0xc0, 0xf0, 0xc1, 0x39, 0x1b, 0x9f, 0x32, 0xf6, 0xca, 0xe5, 0x37, 0xfc, 0x89, 0x15, 0x9e, 0x2f, 0x79, 0xcc, 0xd8, 0x4d, 0xf9, 0xd5, 0xbf, 0x93, 0xca, 0xb2, 0xc3, 0x5a, 0x57, 0x04, 0x7f, 0xda, 0x46, 0xcf, 0x07, 0x32, 0x0d, 0xdb, 0xdc, 0xf8, 0xfd, 0x12, 0xca, 0x12, 0x22, 0x2e, 0x0a, 0xf2, 0x15, 0x06, 0x27, 0xd1, 0x1c, 0xef, 0xcf, 0xf5, 0x2b, 0x7f, 0xd7, 0xc3, 0x4c, 0x2e, 0xdb, 0xe2, 0x4f, 0x3d, 0xbd, 0x7a, 0x33, 0x11, 0x0c, 0x9d, 0xe2, 0x11, 0x67, 0xbf, 0xf1, 0xba, 0x6a, 0x70, 0xcd, 0xb7, 0x44, 0xb0, 0x1e, 0xbd, 0x36, 0xc8, 0x79, 0xe4, 0x10, 0x81, 0x5d, 0x1c, 0xf8, 0x25, 0x41, 0xb7, 0x1a, 0x14, 0xb1, 0xfc, 0xcc, 0x15, 0xe3, 0xed, 0x1b, 0xab, 0x5a, 0x59, 0x7f, 0x33, 0x9c, 0xd3, 0xf2, 0x23, 0xfd, 0xdf, 0xc8, 0x3a, 0xd9, 0x19, 0xfd, 0x41, 0xe5, 0xdb, 0x2f, 0x06, 0xf8, 0xff, 0xff, 0x04, 0x00, 0x00, 0x00, 0x80, 0x00, 0x00, 0x00, 0xe4, 0xcc, 0xff, 0xff, 0x53, 0xf3, 0xff, 0xff, 0xe4, 0xe6, 0xff, 0xff, 0x9a, 0x13, 0x00, 0x00, 0xa3, 0x05, 0x00, 0x00, 0xfb, 0xfa, 0xff, 0xff, 0x29, 0xee, 0xff, 0xff, 0xe3, 0xfc, 0xff, 0xff, 0x3c, 0xdf, 0xff, 0xff, 0xad, 0x12, 0x00, 0x00, 0xf3, 0xe3, 0xff, 0xff, 0x99, 0x23, 0x00, 0x00, 0xe1, 0x23, 0x00, 0x00, 0x15, 0xef, 0xff, 0xff, 0xf1, 0x01, 0x00, 0x00, 0xe3, 0xf6, 0xff, 0xff, 0x2c, 0xca, 0xff, 0xff, 0x99, 0xd6, 0xff, 0xff, 0xeb, 0xff, 0xff, 0xff, 0xc7, 0x0b, 0x00, 0x00, 0x2d, 0xe8, 0xff, 0xff, 0xb0, 0xcc, 0xff, 0xff, 0xd3, 0x01, 0x00, 0x00, 0x34, 0xf4, 0xff, 0xff, 0xbf, 0xf2, 0xff, 0xff, 0xc0, 0xd3, 0xff, 0xff, 0x3f, 0x08, 0x00, 0x00, 0x9d, 0x30, 0x00, 0x00, 0x83, 0x0e, 0x00, 0x00, 0x4a, 0xee, 0xff, 0xff, 0xc6, 0xe1, 0xff, 0xff, 0xda, 0xe9, 0xff, 0xff, 0x92, 0xf8, 0xff, 0xff, 0x04, 0x00, 0x00, 0x00, 0x20, 0x01, 0x00, 0x00, 0x7f, 0x75, 0xdf, 0xb7, 0x02, 0x7f, 0x7f, 0xb6, 0x7f, 0xc3, 0x7f, 0x81, 0xa6, 0x5a, 0x32, 0x79, 0x7f, 0x7f, 0x95, 0xa2, 0x59, 0x7c, 0x5b, 0x76, 0x7f, 0x81, 0x07, 0x81, 0xb3, 0x7f, 0x7e, 0x7f, 0x6b, 0x57, 0xfe, 0xea, 0x69, 0x62, 0x6f, 0x81, 0x6f, 0xb8, 0x63, 0xcb, 0xa5, 0x58, 0x94, 0x6d, 0x5a, 0x6c, 0x9b, 0x2e, 0x4f, 0x7d, 0x4b, 0x7f, 0x5e, 0xc7, 0x81, 0xc7, 0x8b, 0x73, 0x5c, 0x53, 0x4e, 0x36, 0xf2, 0xc5, 0xb1, 0x58, 0x45, 0xad, 0x6f, 0xce, 0x65, 0xe4, 0xba, 0x59, 0x34, 0x78, 0x5c, 0x77, 0xdb, 0x81, 0x58, 0x6d, 0x56, 0x59, 0x69, 0x9e, 0xcc, 0xd4, 0xbc, 0x69, 0x76, 0x25, 0xf9, 0x08, 0xf5, 0xb3, 0xd7, 0x0a, 0x27, 0xfb, 0x18, 0xf7, 0x07, 0xea, 0xc7, 0x07, 0x0a, 0xfd, 0xe7, 0x1d, 0x05, 0xe2, 0x01, 0xfd, 0x0a, 0xf3, 0x08, 0x0c, 0xf3, 0xde, 0xe0, 0xfe, 0x0d, 0x34, 0x06, 0x05, 0x06, 0xd1, 0x1c, 0x02, 0x14, 0x0c, 0x0e, 0xdf, 0x1c, 0xe6, 0xd2, 0x15, 0xda, 0x10, 0x17, 0x08, 0x08, 0x05, 0x14, 0x01, 0x0a, 0x07, 0x10, 0x29, 0xd1, 0xf6, 0xc9, 0x08, 0x1e, 0x18, 0xfa, 0x13, 0x04, 0xdb, 0xd6, 0x0d, 0xfe, 0xff, 0x2b, 0xe2, 0x12, 0xe6, 0xda, 0x1a, 0x23, 0x0a, 0xfe, 0x08, 0x00, 0xeb, 0x0f, 0xf4, 0x0c, 0x10, 0x18, 0x22, 0xd8, 0xff, 0xff, 0x0d, 0x0d, 0x06, 0x7b, 0x6f, 0x81, 0xdb, 0xb3, 0x6c, 0x5a, 0xc4, 0x5d, 0x87, 0x74, 0xdd, 0xc1, 0x7f, 0x15, 0x64, 0x67, 0x70, 0x95, 0x9b, 0x7f, 0x77, 0x7e, 0x70, 0x76, 0xbc, 0x14, 0xbd, 0x87, 0x61, 0x77, 0x73, 0x62, 0x7f, 0xe3, 0xd4, 0x7f, 0x55, 0x62, 0xcc, 0x59, 0x81, 0x60, 0xac, 0xab, 0x74, 0x81, 0x7a, 0x29, 0x60, 0x81, 0x34, 0x53, 0x7f, 0x52, 0x67, 0x6d, 0xc3, 0x8c, 0xc8, 0x81, 0x61, 0x71, 0x71, 0x37, 0x74, 0xcc, 0x81, 0xcf, 0x59, 0x49, 0xf8, 0x70, 0xd7, 0x6d, 0xbd, 0x81, 0x65, 0x38, 0x7f, 0x63, 0x5b, 0xc8, 0xa7, 0x48, 0x60, 0x7f, 0x5b, 0x5b, 0x8d, 0xd5, 0xda, 0x91, 0x55, 0x7f, 0x49, 0xbe, 0xf9, 0xff, 0xff, 0x04, 0x00, 0x00, 0x00, 0x80, 0x00, 0x00, 0x00, 0x43, 0xfb, 0xff, 0xff, 0xb3, 0xf7, 0xff, 0xff, 0xeb, 0x0a, 0x00, 0x00, 0xa7, 0x27, 0x00, 0x00, 0xd0, 0xfa, 0xff, 0xff, 0x8c, 0xf2, 0xff, 0xff, 0xec, 0xf4, 0xff, 0xff, 0xc9, 0x1c, 0x00, 0x00, 0x6d, 0xff, 0xff, 0xff, 0x23, 0x21, 0x00, 0x00, 0xc1, 0xf1, 0xff, 0xff, 0x12, 0x1c, 0x00, 0x00, 0x2e, 0x2c, 0x00, 0x00, 0x5e, 0xf4, 0xff, 0xff, 0x40, 0xf8, 0xff, 0xff, 0xf6, 0xf5, 0xff, 0xff, 0xde, 0xeb, 0xff, 0xff, 0xe1, 0xf4, 0xff, 0xff, 0x41, 0x22, 0x00, 0x00, 0xf0, 0x03, 0x00, 0x00, 0xfe, 0xf6, 0xff, 0xff, 0xc6, 0xf9, 0xff, 0xff, 0x32, 0xec, 0xff, 0xff, 0xec, 0xf3, 0xff, 0xff, 0x3b, 0xee, 0xff, 0xff, 0xc2, 0x15, 0x00, 0x00, 0xad, 0x12, 0x00, 0x00, 0x1f, 0x19, 0x00, 0x00, 0xd7, 0x39, 0x00, 0x00, 0x45, 0xf3, 0xff, 0xff, 0x11, 0xe2, 0xff, 0xff, 0x99, 0xfb, 0xff, 0xff, 0x4a, 0xfa, 0xff, 0xff, 0x04, 0x00, 0x00, 0x00, 0x00, 0x04, 0x00, 0x00, 0xfa, 0xf0, 0xd3, 0xfa, 0x13, 0x81, 0x2f, 0xbe, 0x07, 0x45, 0xf9, 0xf1, 0xb4, 0xfa, 0xe4, 0x2f, 0xb3, 0x09, 0xf7, 0x1b, 0x26, 0x14, 0x21, 0xed, 0x3b, 0xde, 0xac, 0x37, 0x41, 0x4c, 0xdb, 0xe0, 0x6c, 0xd3, 0x2a, 0x40, 0xed, 0x29, 0xcd, 0xd5, 0xd5, 0xff, 0xce, 0xb0, 0x44, 0xbd, 0xe6, 0xe0, 0xac, 0xb9, 0x1a, 0x8e, 0x6a, 0xfe, 0x3f, 0x09, 0x08, 0xaa, 0x03, 0x1d, 0xf6, 0x46, 0xad, 0x7f, 0xbe, 0xc2, 0x06, 0x4d, 0xf6, 0x09, 0x0e, 0xc4, 0xcb, 0xd8, 0x5b, 0xca, 0x55, 0x29, 0x20, 0x5f, 0x13, 0xc4, 0xf1, 0xf0, 0xe5, 0x39, 0x2f, 0xb5, 0x32, 0x81, 0xfc, 0xe8, 0x07, 0xed, 0xf8, 0x04, 0x14, 0x78, 0xe5, 0xb5, 0x5f, 0x7f, 0x45, 0xda, 0xc2, 0x47, 0xda, 0xde, 0xe5, 0xee, 0xfa, 0x0e, 0xf1, 0xaf, 0x3d, 0xc7, 0xf1, 0x22, 0x12, 0xcf, 0xa3, 0xc2, 0x1f, 0x01, 0x3e, 0x32, 0xbf, 0x25, 0xe0, 0xf4, 0xd0, 0xff, 0xd5, 0xfb, 0x7f, 0xdc, 0xc3, 0xdf, 0x12, 0x2c, 0x37, 0xc1, 0x05, 0xda, 0x11, 0x5b, 0xee, 0x11, 0x21, 0xe8, 0x92, 0x1a, 0xeb, 0xd1, 0xe5, 0x01, 0x09, 0xca, 0x54, 0x53, 0x1f, 0x13, 0xda, 0xfc, 0x21, 0xc2, 0xf5, 0xcd, 0xd3, 0x03, 0x7f, 0x01, 0xba, 0x1c, 0x06, 0xee, 0xdc, 0x1a, 0x2f, 0xc7, 0xd4, 0x06, 0xe8, 0xba, 0xf0, 0xb6, 0xf2, 0x2e, 0x37, 0x16, 0x50, 0xf4, 0xdd, 0x6d, 0x90, 0x87, 0x77, 0x28, 0xac, 0xad, 0x01, 0x37, 0xdb, 0x8f, 0x16, 0x99, 0xdd, 0xe0, 0x75, 0xf0, 0xf3, 0x37, 0xda, 0x51, 0xae, 0xfb, 0x1a, 0xd5, 0x77, 0x38, 0x7f, 0x65, 0xe9, 0x1c, 0x3f, 0x7f, 0x07, 0x0f, 0xf2, 0x2c, 0x15, 0xd8, 0xe8, 0xf9, 0x12, 0x43, 0xcf, 0xe2, 0x5f, 0xcd, 0xf6, 0x1e, 0x31, 0x29, 0x01, 0x1e, 0x22, 0x04, 0x08, 0xce, 0x14, 0xbc, 0x1a, 0xab, 0xfb, 0xd9, 0x74, 0x3b, 0xae, 0x2e, 0x23, 0x71, 0x0a, 0xe7, 0x48, 0x28, 0x37, 0x74, 0xad, 0xa0, 0xa5, 0x8a, 0x04, 0x42, 0x38, 0xae, 0x7f, 0xac, 0x89, 0x2d, 0xb1, 0xe5, 0xc8, 0xdc, 0x21, 0x3c, 0x0f, 0x88, 0x51, 0x1e, 0xd7, 0x34, 0x0b, 0xd8, 0xa9, 0xd4, 0xa6, 0xc1, 0xe4, 0xe3, 0x08, 0xcd, 0x54, 0x17, 0xeb, 0x52, 0xf7, 0x7f, 0xd9, 0xcf, 0xdf, 0x11, 0x24, 0xca, 0x26, 0xc7, 0x25, 0x2e, 0xfb, 0x25, 0xf8, 0xf3, 0xb8, 0xe6, 0xea, 0x7e, 0x7f, 0x0d, 0x5d, 0xff, 0xda, 0xd3, 0x3f, 0xcf, 0xd0, 0x22, 0x19, 0x0a, 0xd4, 0x18, 0x02, 0xed, 0x0a, 0x1b, 0xe2, 0xe1, 0xe1, 0xcd, 0x20, 0xca, 0xf9, 0x1f, 0x03, 0x7b, 0x29, 0x51, 0xc5, 0xd5, 0x4a, 0xee, 0x4b, 0xde, 0x0d, 0x18, 0x15, 0xa2, 0xcf, 0x81, 0xcc, 0x38, 0x56, 0x24, 0x51, 0xde, 0x6f, 0x69, 0x70, 0xbf, 0xab, 0xeb, 0xd1, 0x00, 0xcc, 0xaa, 0xd8, 0x66, 0xd3, 0x01, 0x08, 0xe7, 0x29, 0xc5, 0xe3, 0x0f, 0x32, 0x92, 0xfb, 0xcc, 0xe4, 0x7f, 0x06, 0xa7, 0x15, 0x17, 0xae, 0x28, 0x79, 0x26, 0xee, 0xbc, 0xe7, 0xf3, 0x1e, 0xd8, 0x52, 0xdf, 0x13, 0xd5, 0x24, 0x1b, 0x29, 0xdb, 0x00, 0xe6, 0x16, 0xec, 0x1a, 0xee, 0xf7, 0xf6, 0xf9, 0x7f, 0x11, 0xe8, 0xd3, 0x23, 0xb6, 0xd2, 0x4e, 0x10, 0xfc, 0xe7, 0x07, 0xe3, 0x21, 0x19, 0x26, 0x20, 0xc3, 0x1c, 0xbd, 0x1c, 0x0d, 0x23, 0x9b, 0x0b, 0x05, 0xcf, 0x60, 0xf9, 0x31, 0x35, 0xb0, 0xa7, 0x2f, 0x36, 0xd3, 0x81, 0x20, 0xdc, 0x03, 0x50, 0xcc, 0xff, 0xbe, 0xd5, 0x00, 0x41, 0x44, 0x96, 0xcc, 0x99, 0x17, 0xf0, 0x1d, 0xd5, 0xf9, 0xe3, 0x6a, 0x23, 0x7f, 0xc7, 0x02, 0xfa, 0xff, 0x52, 0xdf, 0x0d, 0xf6, 0xdd, 0x19, 0xdd, 0xe1, 0xe2, 0x5b, 0xa4, 0xe0, 0xfe, 0x3e, 0x24, 0x29, 0xe1, 0xe3, 0x10, 0xd9, 0x26, 0xfa, 0xfd, 0xfc, 0xd4, 0x18, 0xa9, 0xce, 0x32, 0x15, 0xcb, 0x50, 0xf1, 0x4e, 0x3c, 0xed, 0x7f, 0x12, 0x42, 0x9c, 0x04, 0x3a, 0xe6, 0x45, 0x03, 0x01, 0xc3, 0x33, 0x27, 0x2f, 0x7f, 0xd9, 0x3d, 0xf1, 0xbd, 0x2a, 0xd7, 0xfb, 0x1c, 0x15, 0xd2, 0xf5, 0x0b, 0xb3, 0x30, 0x4e, 0xdc, 0x1e, 0xd3, 0xc9, 0xca, 0xf1, 0x37, 0xc0, 0xf6, 0xee, 0x45, 0xd6, 0x3a, 0x94, 0x18, 0xf2, 0xef, 0x2e, 0x53, 0x3c, 0x0f, 0xed, 0xe4, 0xdd, 0xd0, 0x3b, 0x33, 0xbd, 0x11, 0xff, 0xfd, 0xec, 0x29, 0xa5, 0x0f, 0xc2, 0x28, 0x4c, 0x81, 0x59, 0xb2, 0x02, 0xed, 0x02, 0x4d, 0x29, 0x8c, 0x51, 0x18, 0x31, 0xfb, 0xb0, 0xed, 0x32, 0x04, 0x57, 0x0d, 0x81, 0x0b, 0x2e, 0xe2, 0xeb, 0xf2, 0xbf, 0xd9, 0x26, 0xf9, 0x57, 0xe9, 0x1f, 0x72, 0x3f, 0xc6, 0xd1, 0x02, 0xdd, 0x0d, 0x18, 0xfd, 0x6f, 0xe2, 0x34, 0x5e, 0x12, 0xfa, 0x91, 0xda, 0x7f, 0xff, 0x86, 0xef, 0x07, 0x2b, 0x37, 0x4f, 0xf5, 0xda, 0xd6, 0x40, 0x7a, 0xd2, 0x1c, 0x4b, 0xfa, 0xe9, 0x10, 0xe1, 0x1e, 0x9b, 0x8e, 0x61, 0xd4, 0xdb, 0xd1, 0x0f, 0x0b, 0x40, 0xea, 0xf8, 0x15, 0xf9, 0xb2, 0xfc, 0xfa, 0xdc, 0x41, 0x0f, 0x05, 0xde, 0xc9, 0x41, 0x5a, 0x24, 0x19, 0xdf, 0x7f, 0xd7, 0xe3, 0xc1, 0x40, 0xcc, 0x13, 0xc8, 0x34, 0xfc, 0xdf, 0xc2, 0xff, 0x53, 0x33, 0x08, 0x7f, 0x14, 0x19, 0xe6, 0x23, 0xf7, 0xe7, 0x02, 0x21, 0xeb, 0x14, 0x07, 0xf8, 0xa8, 0xe0, 0x2a, 0xa5, 0xcf, 0xd9, 0xb4, 0x53, 0xcb, 0x27, 0x58, 0x9b, 0xba, 0x41, 0x43, 0xe2, 0x3d, 0x04, 0xf7, 0xf7, 0x15, 0xba, 0x3f, 0xe5, 0x24, 0x22, 0x49, 0xfe, 0x08, 0x81, 0xd0, 0x63, 0x6c, 0x1b, 0xd1, 0xf4, 0xfc, 0xef, 0x15, 0xef, 0x57, 0xc2, 0xd5, 0xdf, 0x81, 0x30, 0x48, 0xec, 0x20, 0xe2, 0x06, 0x77, 0xe1, 0x10, 0xfd, 0x06, 0x74, 0x81, 0x24, 0x75, 0xe2, 0x97, 0xdf, 0xe4, 0x2e, 0x33, 0xe3, 0x0a, 0xf2, 0x0a, 0x39, 0x08, 0x48, 0xf9, 0xf0, 0x5f, 0xf8, 0x03, 0x36, 0xeb, 0x38, 0x1f, 0xed, 0xff, 0xb6, 0xea, 0x45, 0xe9, 0xff, 0xf1, 0xe1, 0x5f, 0x30, 0x04, 0xf1, 0x35, 0x2e, 0x81, 0xae, 0xfe, 0xb3, 0xfa, 0x2e, 0x02, 0xc5, 0xf7, 0x25, 0xca, 0x0f, 0xcf, 0x4c, 0xf1, 0x27, 0xd1, 0xd5, 0xbe, 0xc1, 0x4b, 0x12, 0x32, 0x2c, 0xf2, 0xd6, 0xfe, 0xc9, 0xe1, 0x81, 0x22, 0x63, 0x25, 0xe9, 0x00, 0xb7, 0x24, 0xdb, 0xe5, 0xe5, 0x26, 0xf9, 0x34, 0xea, 0xdf, 0x67, 0xe4, 0xee, 0x01, 0xe0, 0x21, 0xd0, 0x1d, 0x15, 0x3f, 0x7f, 0x06, 0xf7, 0xe9, 0xfb, 0xf4, 0xec, 0xdf, 0xf0, 0x21, 0x10, 0xfd, 0xe5, 0xd7, 0xb6, 0xe9, 0x01, 0xfb, 0xcf, 0x5c, 0xd9, 0xce, 0xe6, 0x7f, 0x07, 0xd9, 0xcf, 0x45, 0xc3, 0x1a, 0x42, 0xdd, 0x0b, 0xee, 0x09, 0x3a, 0x0c, 0xfa, 0xeb, 0xed, 0xce, 0xc9, 0xe7, 0xb2, 0xaf, 0xfa, 0xcd, 0x38, 0xc7, 0x5c, 0x28, 0x57, 0xea, 0x4b, 0x2e, 0xe0, 0xe3, 0x35, 0xf2, 0x60, 0x36, 0x34, 0x4d, 0x8a, 0x7f, 0xcf, 0x11, 0x1c, 0x2c, 0x00, 0x40, 0xf4, 0xc2, 0xfd, 0xfc, 0xfe, 0xc6, 0xbe, 0x07, 0xed, 0xbe, 0xc6, 0xac, 0xcc, 0x5d, 0xdc, 0xd6, 0xca, 0xbc, 0x17, 0xce, 0x33, 0x52, 0xb8, 0x0b, 0x00, 0x39, 0x53, 0xe0, 0xcb, 0xf0, 0x31, 0x1c, 0x52, 0xf5, 0xdb, 0x7f, 0xf8, 0xd2, 0x20, 0xfc, 0x1c, 0x2d, 0xbb, 0x22, 0xd5, 0xf5, 0xdf, 0x90, 0x14, 0x1b, 0x2b, 0x16, 0x12, 0xfb, 0xd7, 0x23, 0xd4, 0x3d, 0xe4, 0xce, 0xfc, 0x3d, 0xf3, 0x0b, 0xbf, 0xe2, 0xfc, 0xbf, 0xde, 0xe0, 0xe3, 0x20, 0x49, 0x57, 0x7f, 0x48, 0x56, 0xfe, 0xff, 0xff, 0x04, 0x00, 0x00, 0x00, 0x80, 0x00, 0x00, 0x00, 0x50, 0x05, 0x00, 0x00, 0x3b, 0x06, 0x00, 0x00, 0xf2, 0x0a, 0x00, 0x00, 0x22, 0x05, 0x00, 0x00, 0x2c, 0x07, 0x00, 0x00, 0xa0, 0x08, 0x00, 0x00, 0xfb, 0x08, 0x00, 0x00, 0x3a, 0x03, 0x00, 0x00, 0x6d, 0x04, 0x00, 0x00, 0x2e, 0x07, 0x00, 0x00, 0xcf, 0x05, 0x00, 0x00, 0xa6, 0x01, 0x00, 0x00, 0x46, 0x08, 0x00, 0x00, 0xbd, 0xff, 0xff, 0xff, 0x52, 0x04, 0x00, 0x00, 0x54, 0x06, 0x00, 0x00, 0x3a, 0x04, 0x00, 0x00, 0x11, 0x02, 0x00, 0x00, 0xe3, 0x04, 0x00, 0x00, 0x1b, 0x01, 0x00, 0x00, 0xb1, 0x01, 0x00, 0x00, 0xb7, 0x06, 0x00, 0x00, 0x0f, 0x05, 0x00, 0x00, 0xa1, 0xfd, 0xff, 0xff, 0xdc, 0xfc, 0xff, 0xff, 0x66, 0x06, 0x00, 0x00, 0x4a, 0x0a, 0x00, 0x00, 0x79, 0x04, 0x00, 0x00, 0x11, 0x0d, 0x00, 0x00, 0x55, 0x01, 0x00, 0x00, 0x1b, 0x04, 0x00, 0x00, 0x09, 0x04, 0x00, 0x00, 0xe2, 0xfe, 0xff, 0xff, 0x04, 0x00, 0x00, 0x00, 0x40, 0x00, 0x00, 0x00, 0xd7, 0xb3, 0x21, 0x81, 0x82, 0x38, 0x29, 0xf9, 0xd3, 0xb8, 0xdb, 0xb7, 0x50, 0x0d, 0x75, 0x7c, 0xc4, 0x4e, 0x6e, 0x2c, 0x48, 0xec, 0x25, 0x31, 0x37, 0x40, 0x20, 0x6d, 0xe1, 0x2d, 0xb4, 0x43, 0xc4, 0xdb, 0x10, 0xb3, 0xcd, 0x00, 0x5a, 0x57, 0x08, 0x10, 0x6a, 0x2f, 0x12, 0xb1, 0xf5, 0x2b, 0x22, 0x75, 0x87, 0x4b, 0x4b, 0xbd, 0x4c, 0x0a, 0x82, 0x69, 0xfa, 0x39, 0x98, 0xfd, 0x46, 0x4d, 0x2e, 0xff, 0xff, 0xff, 0x04, 0x00, 0x00, 0x00, 0x08, 0x00, 0x00, 0x00, 0xef, 0xff, 0xff, 0xff, 0x11, 0x00, 0x00, 0x00, 0x42, 0xff, 0xff, 0xff, 0x04, 0x00, 0x00, 0x00, 0x08, 0x00, 0x00, 0x00, 0xff, 0xff, 0xff, 0xff, 0x20, 0x00, 0x00, 0x00, 0xb8, 0xc0, 0xff, 0xff, 0xbc, 0xc0, 0xff, 0xff, 0x0f, 0x00, 0x00, 0x00, 0x4d, 0x4c, 0x49, 0x52, 0x20, 0x43, 0x6f, 0x6e, 0x76, 0x65, 0x72, 0x74, 0x65, 0x64, 0x2e, 0x00, 0x01, 0x00, 0x00, 0x00, 0x14, 0x00, 0x00, 0x00, 0x00, 0x00, 0x0e, 0x00, 0x18, 0x00, 0x14, 0x00, 0x10, 0x00, 0x0c, 0x00, 0x08, 0x00, 0x04, 0x00, 0x0e, 0x00, 0x00, 0x00, 0x14, 0x00, 0x00, 0x00, 0x1c, 0x00, 0x00, 0x00, 0xb4, 0x03, 0x00, 0x00, 0xb8, 0x03, 0x00, 0x00, 0xbc, 0x03, 0x00, 0x00, 0x04, 0x00, 0x00, 0x00, 0x6d, 0x61, 0x69, 0x6e, 0x00, 0x00, 0x00, 0x00, 0x0d, 0x00, 0x00, 0x00, 0x50, 0x03, 0x00, 0x00, 0xe8, 0x02, 0x00, 0x00, 0x98, 0x02, 0x00, 0x00, 0x50, 0x02, 0x00, 0x00, 0x10, 0x02, 0x00, 0x00, 0xc8, 0x01, 0x00, 0x00, 0x88, 0x01, 0x00, 0x00, 0x40, 0x01, 0x00, 0x00, 0x00, 0x01, 0x00, 0x00, 0xac, 0x00, 0x00, 0x00, 0x84, 0x00, 0x00, 0x00, 0x40, 0x00, 0x00, 0x00, 0x04, 0x00, 0x00, 0x00, 0x56, 0xfd, 0xff, 0xff, 0x1c, 0x00, 0x00, 0x00, 0x00, 0x00, 0x00, 0x09, 0x1c, 0x00, 0x00, 0x00, 0x20, 0x00, 0x00, 0x00, 0x05, 0x00, 0x00, 0x00, 0x00, 0x00, 0x06, 0x00, 0x08, 0x00, 0x04, 0x00, 0x06, 0x00, 0x00, 0x00, 0x00, 0x00, 0x80, 0x3f, 0x01, 0x00, 0x00, 0x00, 0x22, 0x00, 0x00, 0x00, 0x01, 0x00, 0x00, 0x00, 0x21, 0x00, 0x00, 0x00, 0x8e, 0xfd, 0xff, 0xff, 0x14, 0x00, 0x00, 0x00, 0x00, 0x00, 0x00, 0x08, 0x10, 0x00, 0x00, 0x00, 0x14, 0x00, 0x00, 0x00, 0x04, 0x00, 0x00, 0x00, 0x98, 0xc1, 0xff, 0xff, 0x01, 0x00, 0x00, 0x00, 0x21, 0x00, 0x00, 0x00, 0x03, 0x00, 0x00, 0x00, 0x20, 0x00, 0x00, 0x00, 0x03, 0x00, 0x00, 0x00, 0x02, 0x00, 0x00, 0x00, 0x00, 0x00, 0x0a, 0x00, 0x10, 0x00, 0x0c, 0x00, 0x08, 0x00, 0x04, 0x00, 0x0a, 0x00, 0x00, 0x00, 0x0c, 0x00, 0x00, 0x00, 0x10, 0x00, 0x00, 0x00, 0x03, 0x00, 0x00, 0x00, 0x01, 0x00, 0x00, 0x00, 0x20, 0x00, 0x00, 0x00, 0x02, 0x00, 0x00, 0x00, 0x1f, 0x00, 0x00, 0x00, 0x01, 0x00, 0x00, 0x00, 0xf2, 0xfd, 0xff, 0xff, 0x24, 0x00, 0x00, 0x00, 0x00, 0x00, 0x00, 0x05, 0x34, 0x00, 0x00, 0x00, 0x38, 0x00, 0x00, 0x00, 0x02, 0x00, 0x00, 0x00, 0x00, 0x00, 0x0e, 0x00, 0x18, 0x00, 0x17, 0x00, 0x10, 0x00, 0x0c, 0x00, 0x08, 0x00, 0x04, 0x00, 0x0e, 0x00, 0x00, 0x00, 0x18, 0x00, 0x00, 0x00, 0x0b, 0x00, 0x00, 0x00, 0x18, 0x00, 0x00, 0x00, 0x0b, 0x00, 0x00, 0x00, 0x00, 0x00, 0x00, 0x01, 0x01, 0x00, 0x00, 0x00, 0x1f, 0x00, 0x00, 0x00, 0x01, 0x00, 0x00, 0x00, 0x1e, 0x00, 0x00, 0x00, 0xde, 0xfd, 0xff, 0xff, 0x10, 0x00, 0x00, 0x00, 0x00, 0x00, 0x00, 0x01, 0x18, 0x00, 0x00, 0x00, 0x1c, 0x00, 0x00, 0x00, 0xd0, 0xfd, 0xff, 0xff, 0x00, 0x00, 0x00, 0x01, 0x01, 0x00, 0x00, 0x00, 0x01, 0x00, 0x00, 0x00, 0x01, 0x00, 0x00, 0x00, 0x1e, 0x00, 0x00, 0x00, 0x03, 0x00, 0x00, 0x00, 0x1d, 0x00, 0x00, 0x00, 0x05, 0x00, 0x00, 0x00, 0x04, 0x00, 0x00, 0x00, 0x7e, 0xfe, 0xff, 0xff, 0x14, 0x00, 0x00, 0x00, 0x00, 0x00, 0x00, 0x02, 0x20, 0x00, 0x00, 0x00, 0x24, 0x00, 0x00, 0x00, 0x01, 0x00, 0x00, 0x00, 0x6e, 0xfe, 0xff, 0xff, 0x00, 0x00, 0x00, 0x01, 0x01, 0x00, 0x00, 0x00, 0x01, 0x00, 0x00, 0x00, 0x01, 0x00, 0x00, 0x00, 0x01, 0x00, 0x00, 0x00, 0x1d, 0x00, 0x00, 0x00, 0x03, 0x00, 0x00, 0x00, 0x1c, 0x00, 0x00, 0x00, 0x07, 0x00, 0x00, 0x00, 0x06, 0x00, 0x00, 0x00, 0x5e, 0xfe, 0xff, 0xff, 0x10, 0x00, 0x00, 0x00, 0x00, 0x00, 0x00, 0x01, 0x18, 0x00, 0x00, 0x00, 0x1c, 0x00, 0x00, 0x00, 0x50, 0xfe, 0xff, 0xff, 0x00, 0x00, 0x00, 0x01, 0x01, 0x00, 0x00, 0x00, 0x01, 0x00, 0x00, 0x00, 0x01, 0x00, 0x00, 0x00, 0x1c, 0x00, 0x00, 0x00, 0x03, 0x00, 0x00, 0x00, 0x1b, 0x00, 0x00, 0x00, 0x09, 0x00, 0x00, 0x00, 0x08, 0x00, 0x00, 0x00, 0xfe, 0xfe, 0xff, 0xff, 0x14, 0x00, 0x00, 0x00, 0x00, 0x00, 0x00, 0x02, 0x20, 0x00, 0x00, 0x00, 0x24, 0x00, 0x00, 0x00, 0x01, 0x00, 0x00, 0x00, 0xee, 0xfe, 0xff, 0xff, 0x00, 0x00, 0x00, 0x01, 0x01, 0x00, 0x00, 0x00, 0x01, 0x00, 0x00, 0x00, 0x01, 0x00, 0x00, 0x00, 0x01, 0x00, 0x00, 0x00, 0x1b, 0x00, 0x00, 0x00, 0x03, 0x00, 0x00, 0x00, 0x1a, 0x00, 0x00, 0x00, 0x0b, 0x00, 0x00, 0x00, 0x0a, 0x00, 0x00, 0x00, 0xde, 0xfe, 0xff, 0xff, 0x10, 0x00, 0x00, 0x00, 0x00, 0x00, 0x00, 0x01, 0x18, 0x00, 0x00, 0x00, 0x1c, 0x00, 0x00, 0x00, 0xd0, 0xfe, 0xff, 0xff, 0x00, 0x00, 0x00, 0x01, 0x01, 0x00, 0x00, 0x00, 0x01, 0x00, 0x00, 0x00, 0x01, 0x00, 0x00, 0x00, 0x1a, 0x00, 0x00, 0x00, 0x03, 0x00, 0x00, 0x00, 0x19, 0x00, 0x00, 0x00, 0x0d, 0x00, 0x00, 0x00, 0x0c, 0x00, 0x00, 0x00, 0x7e, 0xff, 0xff, 0xff, 0x14, 0x00, 0x00, 0x00, 0x00, 0x00, 0x00, 0x02, 0x20, 0x00, 0x00, 0x00, 0x24, 0x00, 0x00, 0x00, 0x01, 0x00, 0x00, 0x00, 0x6e, 0xff, 0xff, 0xff, 0x00, 0x00, 0x00, 0x01, 0x01, 0x00, 0x00, 0x00, 0x01, 0x00, 0x00, 0x00, 0x01, 0x00, 0x00, 0x00, 0x01, 0x00, 0x00, 0x00, 0x19, 0x00, 0x00, 0x00, 0x03, 0x00, 0x00, 0x00, 0x18, 0x00, 0x00, 0x00, 0x0f, 0x00, 0x00, 0x00, 0x0e, 0x00, 0x00, 0x00, 0x5e, 0xff, 0xff, 0xff, 0x10, 0x00, 0x00, 0x00, 0x00, 0x00, 0x00, 0x01, 0x18, 0x00, 0x00, 0x00, 0x1c, 0x00, 0x00, 0x00, 0x50, 0xff, 0xff, 0xff, 0x00, 0x00, 0x00, 0x01, 0x01, 0x00, 0x00, 0x00, 0x01, 0x00, 0x00, 0x00, 0x01, 0x00, 0x00, 0x00, 0x18, 0x00, 0x00, 0x00, 0x03, 0x00, 0x00, 0x00, 0x17, 0x00, 0x00, 0x00, 0x11, 0x00, 0x00, 0x00, 0x10, 0x00, 0x00, 0x00, 0x00, 0x00, 0x0e, 0x00, 0x1a, 0x00, 0x14, 0x00, 0x10, 0x00, 0x0c, 0x00, 0x0b, 0x00, 0x04, 0x00, 0x0e, 0x00, 0x00, 0x00, 0x24, 0x00, 0x00, 0x00, 0x00, 0x00, 0x00, 0x02, 0x30, 0x00, 0x00, 0x00, 0x34, 0x00, 0x00, 0x00, 0x01, 0x00, 0x00, 0x00, 0x00, 0x00, 0x0e, 0x00, 0x14, 0x00, 0x00, 0x00, 0x10, 0x00, 0x0c, 0x00, 0x08, 0x00, 0x07, 0x00, 0x0e, 0x00, 0x00, 0x00, 0x00, 0x00, 0x00, 0x01, 0x01, 0x00, 0x00, 0x00, 0x01, 0x00, 0x00, 0x00, 0x01, 0x00, 0x00, 0x00, 0x01, 0x00, 0x00, 0x00, 0x17, 0x00, 0x00, 0x00, 0x03, 0x00, 0x00, 0x00, 0x16, 0x00, 0x00, 0x00, 0x13, 0x00, 0x00, 0x00, 0x12, 0x00, 0x00, 0x00, 0x00, 0x00, 0x0e, 0x00, 0x14, 0x00, 0x00, 0x00, 0x10, 0x00, 0x0c, 0x00, 0x0b, 0x00, 0x04, 0x00, 0x0e, 0x00, 0x00, 0x00, 0x1c, 0x00, 0x00, 0x00, 0x00, 0x00, 0x00, 0x01, 0x24, 0x00, 0x00, 0x00, 0x28, 0x00, 0x00, 0x00, 0x0c, 0x00, 0x10, 0x00, 0x00, 0x00, 0x0c, 0x00, 0x08, 0x00, 0x07, 0x00, 0x0c, 0x00, 0x00, 0x00, 0x00, 0x00, 0x00, 0x01, 0x02, 0x00, 0x00, 0x00, 0x02, 0x00, 0x00, 0x00, 0x01, 0x00, 0x00, 0x00, 0x16, 0x00, 0x00, 0x00, 0x03, 0x00, 0x00, 0x00, 0x00, 0x00, 0x00, 0x00, 0x15, 0x00, 0x00, 0x00, 0x14, 0x00, 0x00, 0x00, 0x01, 0x00, 0x00, 0x00, 0x22, 0x00, 0x00, 0x00, 0x01, 0x00, 0x00, 0x00, 0x00, 0x00, 0x00, 0x00, 0x23, 0x00, 0x00, 0x00, 0x88, 0x3b, 0x00, 0x00, 0x20, 0x3b, 0x00, 0x00, 0x8c, 0x3a, 0x00, 0x00, 0x18, 0x3a, 0x00, 0x00, 0x9c, 0x37, 0x00, 0x00, 0xb0, 0x35, 0x00, 0x00, 0xf4, 0x32, 0x00, 0x00, 0x38, 0x30, 0x00, 0x00, 0xa4, 0x2d, 0x00, 0x00, 0xb8, 0x2b, 0x00, 0x00, 0x04, 0x29, 0x00, 0x00, 0x5c, 0x26, 0x00, 0x00, 0xc4, 0x23, 0x00, 0x00, 0xd8, 0x21, 0x00, 0x00, 0x24, 0x1f, 0x00, 0x00, 0x7c, 0x1c, 0x00, 0x00, 0xe4, 0x19, 0x00, 0x00, 0xf8, 0x17, 0x00, 0x00, 0x44, 0x15, 0x00, 0x00, 0x9c, 0x12, 0x00, 0x00, 0x04, 0x10, 0x00, 0x00, 0x18, 0x0e, 0x00, 0x00, 0xd4, 0x0c, 0x00, 0x00, 0x70, 0x0b, 0x00, 0x00, 0x2c, 0x0a, 0x00, 0x00, 0xc8, 0x08, 0x00, 0x00, 0x84, 0x07, 0x00, 0x00, 0x20, 0x06, 0x00, 0x00, 0xdc, 0x04, 0x00, 0x00, 0x70, 0x03, 0x00, 0x00, 0x44, 0x02, 0x00, 0x00, 0xa8, 0x01, 0x00, 0x00, 0x24, 0x01, 0x00, 0x00, 0x80, 0x00, 0x00, 0x00, 0x04, 0x00, 0x00, 0x00, 0x1a, 0xc5, 0xff, 0xff, 0x00, 0x00, 0x00, 0x01, 0x18, 0x00, 0x00, 0x00, 0x20, 0x00, 0x00, 0x00, 0x3c, 0x00, 0x00, 0x00, 0x23, 0x00, 0x00, 0x00, 0x00, 0x00, 0x00, 0x09, 0x50, 0x00, 0x00, 0x00, 0x02, 0x00, 0x00, 0x00, 0xff, 0xff, 0xff, 0xff, 0x02, 0x00, 0x00, 0x00, 0xfc, 0xc4, 0xff, 0xff, 0x08, 0x00, 0x00, 0x00, 0x10, 0x00, 0x00, 0x00, 0x01, 0x00, 0x00, 0x00, 0x80, 0xff, 0xff, 0xff, 0xff, 0xff, 0xff, 0xff, 0x01, 0x00, 0x00, 0x00, 0x00, 0x00, 0x80, 0x3b, 0x19, 0x00, 0x00, 0x00, 0x53, 0x74, 0x61, 0x74, 0x65, 0x66, 0x75, 0x6c, 0x50, 0x61, 0x72, 0x74, 0x69, 0x74, 0x69, 0x6f, 0x6e, 0x65, 0x64, 0x43, 0x61, 0x6c, 0x6c, 0x3a, 0x30, 0x00, 0x00, 0x00, 0x02, 0x00, 0x00, 0x00, 0x01, 0x00, 0x00, 0x00, 0x02, 0x00, 0x00, 0x00, 0x92, 0xc5, 0xff, 0xff, 0x00, 0x00, 0x00, 0x01, 0x18, 0x00, 0x00, 0x00, 0x20, 0x00, 0x00, 0x00, 0x40, 0x00, 0x00, 0x00, 0x22, 0x00, 0x00, 0x00, 0x00, 0x00, 0x00, 0x09, 0x78, 0x00, 0x00, 0x00, 0x02, 0x00, 0x00, 0x00, 0xff, 0xff, 0xff, 0xff, 0x02, 0x00, 0x00, 0x00, 0x74, 0xc5, 0xff, 0xff, 0x08, 0x00, 0x00, 0x00, 0x14, 0x00, 0x00, 0x00, 0x01, 0x00, 0x00, 0x00, 0xb5, 0xff, 0xff, 0xff, 0xff, 0xff, 0xff, 0xff, 0x00, 0x00, 0x00, 0x00, 0x01, 0x00, 0x00, 0x00, 0xa7, 0xdc, 0xa9, 0x3d, 0x3e, 0x00, 0x00, 0x00, 0x73, 0x65, 0x71, 0x75, 0x65, 0x6e, 0x74, 0x69, 0x61, 0x6c, 0x2f, 0x64, 0x65, 0x6e, 0x73, 0x65, 0x5f, 0x6f, 0x75, 0x74, 0x70, 0x75, 0x74, 0x2f, 0x4d, 0x61, 0x74, 0x4d, 0x75, 0x6c, 0x3b, 0x73, 0x65, 0x71, 0x75, 0x65, 0x6e, 0x74, 0x69, 0x61, 0x6c, 0x2f, 0x64, 0x65, 0x6e, 0x73, 0x65, 0x5f, 0x6f, 0x75, 0x74, 0x70, 0x75, 0x74, 0x2f, 0x42, 0x69, 0x61, 0x73, 0x41, 0x64, 0x64, 0x00, 0x00, 0x02, 0x00, 0x00, 0x00, 0x01, 0x00, 0x00, 0x00, 0x02, 0x00, 0x00, 0x00, 0x32, 0xc6, 0xff, 0xff, 0x00, 0x00, 0x00, 0x01, 0x18, 0x00, 0x00, 0x00, 0x20, 0x00, 0x00, 0x00, 0x40, 0x00, 0x00, 0x00, 0x21, 0x00, 0x00, 0x00, 0x00, 0x00, 0x00, 0x09, 0x58, 0x00, 0x00, 0x00, 0x02, 0x00, 0x00, 0x00, 0xff, 0xff, 0xff, 0xff, 0x20, 0x00, 0x00, 0x00, 0x14, 0xc6, 0xff, 0xff, 0x08, 0x00, 0x00, 0x00, 0x14, 0x00, 0x00, 0x00, 0x01, 0x00, 0x00, 0x00, 0x80, 0xff, 0xff, 0xff, 0xff, 0xff, 0xff, 0xff, 0x00, 0x00, 0x00, 0x00, 0x01, 0x00, 0x00, 0x00, 0x71, 0x8b, 0x46, 0x3e, 0x1d, 0x00, 0x00, 0x00, 0x73, 0x65, 0x71, 0x75, 0x65, 0x6e, 0x74, 0x69, 0x61, 0x6c, 0x2f, 0x66, 0x6c, 0x61, 0x74, 0x74, 0x65, 0x6e, 0x5f, 0x32, 0x32, 0x2f, 0x52, 0x65, 0x73, 0x68, 0x61, 0x70, 0x65, 0x00, 0x00, 0x00, 0x02, 0x00, 0x00, 0x00, 0x01, 0x00, 0x00, 0x00, 0x20, 0x00, 0x00, 0x00, 0xb2, 0xc6, 0xff, 0xff, 0x00, 0x00, 0x00, 0x01, 0x18, 0x00, 0x00, 0x00, 0x28, 0x00, 0x00, 0x00, 0x48, 0x00, 0x00, 0x00, 0x20, 0x00, 0x00, 0x00, 0x00, 0x00, 0x00, 0x09, 0x68, 0x00, 0x00, 0x00, 0x04, 0x00, 0x00, 0x00, 0xff, 0xff, 0xff, 0xff, 0x01, 0x00, 0x00, 0x00, 0x01, 0x00, 0x00, 0x00, 0x20, 0x00, 0x00, 0x00, 0x9c, 0xc6, 0xff, 0xff, 0x08, 0x00, 0x00, 0x00, 0x14, 0x00, 0x00, 0x00, 0x01, 0x00, 0x00, 0x00, 0x80, 0xff, 0xff, 0xff, 0xff, 0xff, 0xff, 0xff, 0x00, 0x00, 0x00, 0x00, 0x01, 0x00, 0x00, 0x00, 0x71, 0x8b, 0x46, 0x3e, 0x27, 0x00, 0x00, 0x00, 0x73, 0x65, 0x71, 0x75, 0x65, 0x6e, 0x74, 0x69, 0x61, 0x6c, 0x2f, 0x61, 0x76, 0x65, 0x72, 0x61, 0x67, 0x65, 0x5f, 0x70, 0x6f, 0x6f, 0x6c, 0x69, 0x6e, 0x67, 0x32, 0x64, 0x5f, 0x32, 0x33, 0x2f, 0x41, 0x76, 0x67, 0x50, 0x6f, 0x6f, 0x6c, 0x00, 0x04, 0x00, 0x00, 0x00, 0x01, 0x00, 0x00, 0x00, 0x01, 0x00, 0x00, 0x00, 0x01, 0x00, 0x00, 0x00, 0x20, 0x00, 0x00, 0x00, 0x4a, 0xc7, 0xff, 0xff, 0x00, 0x00, 0x00, 0x01, 0x18, 0x00, 0x00, 0x00, 0x28, 0x00, 0x00, 0x00, 0x44, 0x00, 0x00, 0x00, 0x1f, 0x00, 0x00, 0x00, 0x00, 0x00, 0x00, 0x09, 0xf8, 0x00, 0x00, 0x00, 0x04, 0x00, 0x00, 0x00, 0xff, 0xff, 0xff, 0xff, 0x19, 0x00, 0x00, 0x00, 0x0c, 0x00, 0x00, 0x00, 0x20, 0x00, 0x00, 0x00, 0x34, 0xc7, 0xff, 0xff, 0x08, 0x00, 0x00, 0x00, 0x10, 0x00, 0x00, 0x00, 0x01, 0x00, 0x00, 0x00, 0x80, 0xff, 0xff, 0xff, 0xff, 0xff, 0xff, 0xff, 0x01, 0x00, 0x00, 0x00, 0x71, 0x8b, 0x46, 0x3e, 0xb8, 0x00, 0x00, 0x00, 0x73, 0x65, 0x71, 0x75, 0x65, 0x6e, 0x74, 0x69, 0x61, 0x6c, 0x2f, 0x61, 0x63, 0x74, 0x69, 0x76, 0x61, 0x74, 0x69, 0x6f, 0x6e, 0x5f, 0x31, 0x30, 0x31, 0x2f, 0x52, 0x65, 0x6c, 0x75, 0x3b, 0x73, 0x65, 0x71, 0x75, 0x65, 0x6e, 0x74, 0x69, 0x61, 0x6c, 0x2f, 0x62, 0x61, 0x74, 0x63, 0x68, 0x5f, 0x6e, 0x6f, 0x72, 0x6d, 0x61, 0x6c, 0x69, 0x7a, 0x61, 0x74, 0x69, 0x6f, 0x6e, 0x5f, 0x31, 0x30, 0x31, 0x2f, 0x46, 0x75, 0x73, 0x65, 0x64, 0x42, 0x61, 0x74, 0x63, 0x68, 0x4e, 0x6f, 0x72, 0x6d, 0x56, 0x33, 0x3b, 0x73, 0x65, 0x71, 0x75, 0x65, 0x6e, 0x74, 0x69, 0x61, 0x6c, 0x2f, 0x63, 0x6f, 0x6e, 0x76, 0x32, 0x64, 0x5f, 0x37, 0x35, 0x2f, 0x42, 0x69, 0x61, 0x73, 0x41, 0x64, 0x64, 0x2f, 0x52, 0x65, 0x61, 0x64, 0x56, 0x61, 0x72, 0x69, 0x61, 0x62, 0x6c, 0x65, 0x4f, 0x70, 0x3b, 0x73, 0x65, 0x71, 0x75, 0x65, 0x6e, 0x74, 0x69, 0x61, 0x6c, 0x2f, 0x63, 0x6f, 0x6e, 0x76, 0x32, 0x64, 0x5f, 0x37, 0x35, 0x2f, 0x42, 0x69, 0x61, 0x73, 0x41, 0x64, 0x64, 0x3b, 0x73, 0x65, 0x71, 0x75, 0x65, 0x6e, 0x74, 0x69, 0x61, 0x6c, 0x2f, 0x63, 0x6f, 0x6e, 0x76, 0x32, 0x64, 0x5f, 0x37, 0x35, 0x2f, 0x43, 0x6f, 0x6e, 0x76, 0x32, 0x44, 0x31, 0x00, 0x00, 0x00, 0x00, 0x04, 0x00, 0x00, 0x00, 0x01, 0x00, 0x00, 0x00, 0x19, 0x00, 0x00, 0x00, 0x0c, 0x00, 0x00, 0x00, 0x20, 0x00, 0x00, 0x00, 0x72, 0xc8, 0xff, 0xff, 0x00, 0x00, 0x00, 0x01, 0x18, 0x00, 0x00, 0x00, 0x28, 0x00, 0x00, 0x00, 0x48, 0x00, 0x00, 0x00, 0x1e, 0x00, 0x00, 0x00, 0x00, 0x00, 0x00, 0x09, 0x38, 0x01, 0x00, 0x00, 0x04, 0x00, 0x00, 0x00, 0xff, 0xff, 0xff, 0xff, 0x19, 0x00, 0x00, 0x00, 0x0c, 0x00, 0x00, 0x00, 0x20, 0x00, 0x00, 0x00, 0x5c, 0xc8, 0xff, 0xff, 0x08, 0x00, 0x00, 0x00, 0x14, 0x00, 0x00, 0x00, 0x01, 0x00, 0x00, 0x00, 0x80, 0xff, 0xff, 0xff, 0xff, 0xff, 0xff, 0xff, 0x00, 0x00, 0x00, 0x00, 0x01, 0x00, 0x00, 0x00, 0x1f, 0xc4, 0x61, 0x3d, 0xf5, 0x00, 0x00, 0x00, 0x73, 0x65, 0x71, 0x75, 0x65, 0x6e, 0x74, 0x69, 0x61, 0x6c, 0x2f, 0x61, 0x63, 0x74, 0x69, 0x76, 0x61, 0x74, 0x69, 0x6f, 0x6e, 0x5f, 0x31, 0x30, 0x30, 0x2f, 0x52, 0x65, 0x6c, 0x75, 0x3b, 0x73, 0x65, 0x71, 0x75, 0x65, 0x6e, 0x74, 0x69, 0x61, 0x6c, 0x2f, 0x62, 0x61, 0x74, 0x63, 0x68, 0x5f, 0x6e, 0x6f, 0x72, 0x6d, 0x61, 0x6c, 0x69, 0x7a, 0x61, 0x74, 0x69, 0x6f, 0x6e, 0x5f, 0x31, 0x30, 0x30, 0x2f, 0x46, 0x75, 0x73, 0x65, 0x64, 0x42, 0x61, 0x74, 0x63, 0x68, 0x4e, 0x6f, 0x72, 0x6d, 0x56, 0x33, 0x3b, 0x73, 0x65, 0x71, 0x75, 0x65, 0x6e, 0x74, 0x69, 0x61, 0x6c, 0x2f, 0x64, 0x65, 0x70, 0x74, 0x68, 0x77, 0x69, 0x73, 0x65, 0x5f, 0x63, 0x6f, 0x6e, 0x76, 0x32, 0x64, 0x5f, 0x32, 0x35, 0x2f, 0x64, 0x65, 0x70, 0x74, 0x68, 0x77, 0x69, 0x73, 0x65, 0x3b, 0x73, 0x65, 0x71, 0x75, 0x65, 0x6e, 0x74, 0x69, 0x61, 0x6c, 0x2f, 0x64, 0x65, 0x70, 0x74, 0x68, 0x77, 0x69, 0x73, 0x65, 0x5f, 0x63, 0x6f, 0x6e, 0x76, 0x32, 0x64, 0x5f, 0x32, 0x35, 0x2f, 0x42, 0x69, 0x61, 0x73, 0x41, 0x64, 0x64, 0x2f, 0x52, 0x65, 0x61, 0x64, 0x56, 0x61, 0x72, 0x69, 0x61, 0x62, 0x6c, 0x65, 0x4f, 0x70, 0x3b, 0x73, 0x65, 0x71, 0x75, 0x65, 0x6e, 0x74, 0x69, 0x61, 0x6c, 0x2f, 0x64, 0x65, 0x70, 0x74, 0x68, 0x77, 0x69, 0x73, 0x65, 0x5f, 0x63, 0x6f, 0x6e, 0x76, 0x32, 0x64, 0x5f, 0x32, 0x35, 0x2f, 0x42, 0x69, 0x61, 0x73, 0x41, 0x64, 0x64, 0x3b, 0x73, 0x65, 0x71, 0x75, 0x65, 0x6e, 0x74, 0x69, 0x61, 0x6c, 0x2f, 0x63, 0x6f, 0x6e, 0x76, 0x32, 0x64, 0x5f, 0x37, 0x35, 0x2f, 0x43, 0x6f, 0x6e, 0x76, 0x32, 0x44, 0x31, 0x00, 0x00, 0x00, 0x04, 0x00, 0x00, 0x00, 0x01, 0x00, 0x00, 0x00, 0x19, 0x00, 0x00, 0x00, 0x0c, 0x00, 0x00, 0x00, 0x20, 0x00, 0x00, 0x00, 0xda, 0xc9, 0xff, 0xff, 0x00, 0x00, 0x00, 0x01, 0x18, 0x00, 0x00, 0x00, 0x28, 0x00, 0x00, 0x00, 0x44, 0x00, 0x00, 0x00, 0x1d, 0x00, 0x00, 0x00, 0x00, 0x00, 0x00, 0x09, 0x10, 0x01, 0x00, 0x00, 0x04, 0x00, 0x00, 0x00, 0xff, 0xff, 0xff, 0xff, 0x19, 0x00, 0x00, 0x00, 0x0c, 0x00, 0x00, 0x00, 0x20, 0x00, 0x00, 0x00, 0xc4, 0xc9, 0xff, 0xff, 0x08, 0x00, 0x00, 0x00, 0x10, 0x00, 0x00, 0x00, 0x01, 0x00, 0x00, 0x00, 0x80, 0xff, 0xff, 0xff, 0xff, 0xff, 0xff, 0xff, 0x01, 0x00, 0x00, 0x00, 0xce, 0x57, 0xad, 0x3c, 0xd2, 0x00, 0x00, 0x00, 0x73, 0x65, 0x71, 0x75, 0x65, 0x6e, 0x74, 0x69, 0x61, 0x6c, 0x2f, 0x61, 0x63, 0x74, 0x69, 0x76, 0x61, 0x74, 0x69, 0x6f, 0x6e, 0x5f, 0x39, 0x39, 0x2f, 0x52, 0x65, 0x6c, 0x75, 0x3b, 0x73, 0x65, 0x71, 0x75, 0x65, 0x6e, 0x74, 0x69, 0x61, 0x6c, 0x2f, 0x62, 0x61, 0x74, 0x63, 0x68, 0x5f, 0x6e, 0x6f, 0x72, 0x6d, 0x61, 0x6c, 0x69, 0x7a, 0x61, 0x74, 0x69, 0x6f, 0x6e, 0x5f, 0x39, 0x39, 0x2f, 0x46, 0x75, 0x73, 0x65, 0x64, 0x42, 0x61, 0x74, 0x63, 0x68, 0x4e, 0x6f, 0x72, 0x6d, 0x56, 0x33, 0x3b, 0x73, 0x65, 0x71, 0x75, 0x65, 0x6e, 0x74, 0x69, 0x61, 0x6c, 0x2f, 0x63, 0x6f, 0x6e, 0x76, 0x32, 0x64, 0x5f, 0x37, 0x34, 0x2f, 0x42, 0x69, 0x61, 0x73, 0x41, 0x64, 0x64, 0x2f, 0x52, 0x65, 0x61, 0x64, 0x56, 0x61, 0x72, 0x69, 0x61, 0x62, 0x6c, 0x65, 0x4f, 0x70, 0x3b, 0x73, 0x65, 0x71, 0x75, 0x65, 0x6e, 0x74, 0x69, 0x61, 0x6c, 0x2f, 0x63, 0x6f, 0x6e, 0x76, 0x32, 0x64, 0x5f, 0x37, 0x34, 0x2f, 0x42, 0x69, 0x61, 0x73, 0x41, 0x64, 0x64, 0x3b, 0x73, 0x65, 0x71, 0x75, 0x65, 0x6e, 0x74, 0x69, 0x61, 0x6c, 0x2f, 0x63, 0x6f, 0x6e, 0x76, 0x32, 0x64, 0x5f, 0x37, 0x35, 0x2f, 0x43, 0x6f, 0x6e, 0x76, 0x32, 0x44, 0x3b, 0x73, 0x65, 0x71, 0x75, 0x65, 0x6e, 0x74, 0x69, 0x61, 0x6c, 0x2f, 0x63, 0x6f, 0x6e, 0x76, 0x32, 0x64, 0x5f, 0x37, 0x34, 0x2f, 0x43, 0x6f, 0x6e, 0x76, 0x32, 0x44, 0x31, 0x00, 0x00, 0x04, 0x00, 0x00, 0x00, 0x01, 0x00, 0x00, 0x00, 0x19, 0x00, 0x00, 0x00, 0x0c, 0x00, 0x00, 0x00, 0x20, 0x00, 0x00, 0x00, 0x1a, 0xcb, 0xff, 0xff, 0x00, 0x00, 0x00, 0x01, 0x18, 0x00, 0x00, 0x00, 0x28, 0x00, 0x00, 0x00, 0x44, 0x00, 0x00, 0x00, 0x1c, 0x00, 0x00, 0x00, 0x00, 0x00, 0x00, 0x09, 0x30, 0x01, 0x00, 0x00, 0x04, 0x00, 0x00, 0x00, 0xff, 0xff, 0xff, 0xff, 0x19, 0x00, 0x00, 0x00, 0x0c, 0x00, 0x00, 0x00, 0x20, 0x00, 0x00, 0x00, 0x04, 0xcb, 0xff, 0xff, 0x08, 0x00, 0x00, 0x00, 0x10, 0x00, 0x00, 0x00, 0x01, 0x00, 0x00, 0x00, 0x80, 0xff, 0xff, 0xff, 0xff, 0xff, 0xff, 0xff, 0x01, 0x00, 0x00, 0x00, 0x8a, 0x97, 0x12, 0x3d, 0xf3, 0x00, 0x00, 0x00, 0x73, 0x65, 0x71, 0x75, 0x65, 0x6e, 0x74, 0x69, 0x61, 0x6c, 0x2f, 0x61, 0x63, 0x74, 0x69, 0x76, 0x61, 0x74, 0x69, 0x6f, 0x6e, 0x5f, 0x39, 0x38, 0x2f, 0x52, 0x65, 0x6c, 0x75, 0x3b, 0x73, 0x65, 0x71, 0x75, 0x65, 0x6e, 0x74, 0x69, 0x61, 0x6c, 0x2f, 0x62, 0x61, 0x74, 0x63, 0x68, 0x5f, 0x6e, 0x6f, 0x72, 0x6d, 0x61, 0x6c, 0x69, 0x7a, 0x61, 0x74, 0x69, 0x6f, 0x6e, 0x5f, 0x39, 0x38, 0x2f, 0x46, 0x75, 0x73, 0x65, 0x64, 0x42, 0x61, 0x74, 0x63, 0x68, 0x4e, 0x6f, 0x72, 0x6d, 0x56, 0x33, 0x3b, 0x73, 0x65, 0x71, 0x75, 0x65, 0x6e, 0x74, 0x69, 0x61, 0x6c, 0x2f, 0x64, 0x65, 0x70, 0x74, 0x68, 0x77, 0x69, 0x73, 0x65, 0x5f, 0x63, 0x6f, 0x6e, 0x76, 0x32, 0x64, 0x5f, 0x32, 0x34, 0x2f, 0x64, 0x65, 0x70, 0x74, 0x68, 0x77, 0x69, 0x73, 0x65, 0x3b, 0x73, 0x65, 0x71, 0x75, 0x65, 0x6e, 0x74, 0x69, 0x61, 0x6c, 0x2f, 0x64, 0x65, 0x70, 0x74, 0x68, 0x77, 0x69, 0x73, 0x65, 0x5f, 0x63, 0x6f, 0x6e, 0x76, 0x32, 0x64, 0x5f, 0x32, 0x34, 0x2f, 0x42, 0x69, 0x61, 0x73, 0x41, 0x64, 0x64, 0x2f, 0x52, 0x65, 0x61, 0x64, 0x56, 0x61, 0x72, 0x69, 0x61, 0x62, 0x6c, 0x65, 0x4f, 0x70, 0x3b, 0x73, 0x65, 0x71, 0x75, 0x65, 0x6e, 0x74, 0x69, 0x61, 0x6c, 0x2f, 0x64, 0x65, 0x70, 0x74, 0x68, 0x77, 0x69, 0x73, 0x65, 0x5f, 0x63, 0x6f, 0x6e, 0x76, 0x32, 0x64, 0x5f, 0x32, 0x34, 0x2f, 0x42, 0x69, 0x61, 0x73, 0x41, 0x64, 0x64, 0x3b, 0x73, 0x65, 0x71, 0x75, 0x65, 0x6e, 0x74, 0x69, 0x61, 0x6c, 0x2f, 0x63, 0x6f, 0x6e, 0x76, 0x32, 0x64, 0x5f, 0x37, 0x35, 0x2f, 0x43, 0x6f, 0x6e, 0x76, 0x32, 0x44, 0x31, 0x00, 0x04, 0x00, 0x00, 0x00, 0x01, 0x00, 0x00, 0x00, 0x19, 0x00, 0x00, 0x00, 0x0c, 0x00, 0x00, 0x00, 0x20, 0x00, 0x00, 0x00, 0x7a, 0xcc, 0xff, 0xff, 0x00, 0x00, 0x00, 0x01, 0x18, 0x00, 0x00, 0x00, 0x28, 0x00, 0x00, 0x00, 0x44, 0x00, 0x00, 0x00, 0x1b, 0x00, 0x00, 0x00, 0x00, 0x00, 0x00, 0x09, 0x10, 0x01, 0x00, 0x00, 0x04, 0x00, 0x00, 0x00, 0xff, 0xff, 0xff, 0xff, 0x19, 0x00, 0x00, 0x00, 0x0c, 0x00, 0x00, 0x00, 0x20, 0x00, 0x00, 0x00, 0x64, 0xcc, 0xff, 0xff, 0x08, 0x00, 0x00, 0x00, 0x10, 0x00, 0x00, 0x00, 0x01, 0x00, 0x00, 0x00, 0x80, 0xff, 0xff, 0xff, 0xff, 0xff, 0xff, 0xff, 0x01, 0x00, 0x00, 0x00, 0x78, 0x19, 0xfa, 0x3c, 0xd2, 0x00, 0x00, 0x00, 0x73, 0x65, 0x71, 0x75, 0x65, 0x6e, 0x74, 0x69, 0x61, 0x6c, 0x2f, 0x61, 0x63, 0x74, 0x69, 0x76, 0x61, 0x74, 0x69, 0x6f, 0x6e, 0x5f, 0x39, 0x37, 0x2f, 0x52, 0x65, 0x6c, 0x75, 0x3b, 0x73, 0x65, 0x71, 0x75, 0x65, 0x6e, 0x74, 0x69, 0x61, 0x6c, 0x2f, 0x62, 0x61, 0x74, 0x63, 0x68, 0x5f, 0x6e, 0x6f, 0x72, 0x6d, 0x61, 0x6c, 0x69, 0x7a, 0x61, 0x74, 0x69, 0x6f, 0x6e, 0x5f, 0x39, 0x37, 0x2f, 0x46, 0x75, 0x73, 0x65, 0x64, 0x42, 0x61, 0x74, 0x63, 0x68, 0x4e, 0x6f, 0x72, 0x6d, 0x56, 0x33, 0x3b, 0x73, 0x65, 0x71, 0x75, 0x65, 0x6e, 0x74, 0x69, 0x61, 0x6c, 0x2f, 0x63, 0x6f, 0x6e, 0x76, 0x32, 0x64, 0x5f, 0x37, 0x33, 0x2f, 0x42, 0x69, 0x61, 0x73, 0x41, 0x64, 0x64, 0x2f, 0x52, 0x65, 0x61, 0x64, 0x56, 0x61, 0x72, 0x69, 0x61, 0x62, 0x6c, 0x65, 0x4f, 0x70, 0x3b, 0x73, 0x65, 0x71, 0x75, 0x65, 0x6e, 0x74, 0x69, 0x61, 0x6c, 0x2f, 0x63, 0x6f, 0x6e, 0x76, 0x32, 0x64, 0x5f, 0x37, 0x33, 0x2f, 0x42, 0x69, 0x61, 0x73, 0x41, 0x64, 0x64, 0x3b, 0x73, 0x65, 0x71, 0x75, 0x65, 0x6e, 0x74, 0x69, 0x61, 0x6c, 0x2f, 0x63, 0x6f, 0x6e, 0x76, 0x32, 0x64, 0x5f, 0x37, 0x35, 0x2f, 0x43, 0x6f, 0x6e, 0x76, 0x32, 0x44, 0x3b, 0x73, 0x65, 0x71, 0x75, 0x65, 0x6e, 0x74, 0x69, 0x61, 0x6c, 0x2f, 0x63, 0x6f, 0x6e, 0x76, 0x32, 0x64, 0x5f, 0x37, 0x33, 0x2f, 0x43, 0x6f, 0x6e, 0x76, 0x32, 0x44, 0x31, 0x00, 0x00, 0x04, 0x00, 0x00, 0x00, 0x01, 0x00, 0x00, 0x00, 0x19, 0x00, 0x00, 0x00, 0x0c, 0x00, 0x00, 0x00, 0x20, 0x00, 0x00, 0x00, 0xba, 0xcd, 0xff, 0xff, 0x00, 0x00, 0x00, 0x01, 0x18, 0x00, 0x00, 0x00, 0x28, 0x00, 0x00, 0x00, 0x44, 0x00, 0x00, 0x00, 0x1a, 0x00, 0x00, 0x00, 0x00, 0x00, 0x00, 0x09, 0x30, 0x01, 0x00, 0x00, 0x04, 0x00, 0x00, 0x00, 0xff, 0xff, 0xff, 0xff, 0x19, 0x00, 0x00, 0x00, 0x0c, 0x00, 0x00, 0x00, 0x20, 0x00, 0x00, 0x00, 0xa4, 0xcd, 0xff, 0xff, 0x08, 0x00, 0x00, 0x00, 0x10, 0x00, 0x00, 0x00, 0x01, 0x00, 0x00, 0x00, 0x80, 0xff, 0xff, 0xff, 0xff, 0xff, 0xff, 0xff, 0x01, 0x00, 0x00, 0x00, 0x3f, 0x39, 0x41, 0x3d, 0xf3, 0x00, 0x00, 0x00, 0x73, 0x65, 0x71, 0x75, 0x65, 0x6e, 0x74, 0x69, 0x61, 0x6c, 0x2f, 0x61, 0x63, 0x74, 0x69, 0x76, 0x61, 0x74, 0x69, 0x6f, 0x6e, 0x5f, 0x39, 0x36, 0x2f, 0x52, 0x65, 0x6c, 0x75, 0x3b, 0x73, 0x65, 0x71, 0x75, 0x65, 0x6e, 0x74, 0x69, 0x61, 0x6c, 0x2f, 0x62, 0x61, 0x74, 0x63, 0x68, 0x5f, 0x6e, 0x6f, 0x72, 0x6d, 0x61, 0x6c, 0x69, 0x7a, 0x61, 0x74, 0x69, 0x6f, 0x6e, 0x5f, 0x39, 0x36, 0x2f, 0x46, 0x75, 0x73, 0x65, 0x64, 0x42, 0x61, 0x74, 0x63, 0x68, 0x4e, 0x6f, 0x72, 0x6d, 0x56, 0x33, 0x3b, 0x73, 0x65, 0x71, 0x75, 0x65, 0x6e, 0x74, 0x69, 0x61, 0x6c, 0x2f, 0x64, 0x65, 0x70, 0x74, 0x68, 0x77, 0x69, 0x73, 0x65, 0x5f, 0x63, 0x6f, 0x6e, 0x76, 0x32, 0x64, 0x5f, 0x32, 0x33, 0x2f, 0x64, 0x65, 0x70, 0x74, 0x68, 0x77, 0x69, 0x73, 0x65, 0x3b, 0x73, 0x65, 0x71, 0x75, 0x65, 0x6e, 0x74, 0x69, 0x61, 0x6c, 0x2f, 0x64, 0x65, 0x70, 0x74, 0x68, 0x77, 0x69, 0x73, 0x65, 0x5f, 0x63, 0x6f, 0x6e, 0x76, 0x32, 0x64, 0x5f, 0x32, 0x33, 0x2f, 0x42, 0x69, 0x61, 0x73, 0x41, 0x64, 0x64, 0x2f, 0x52, 0x65, 0x61, 0x64, 0x56, 0x61, 0x72, 0x69, 0x61, 0x62, 0x6c, 0x65, 0x4f, 0x70, 0x3b, 0x73, 0x65, 0x71, 0x75, 0x65, 0x6e, 0x74, 0x69, 0x61, 0x6c, 0x2f, 0x64, 0x65, 0x70, 0x74, 0x68, 0x77, 0x69, 0x73, 0x65, 0x5f, 0x63, 0x6f, 0x6e, 0x76, 0x32, 0x64, 0x5f, 0x32, 0x33, 0x2f, 0x42, 0x69, 0x61, 0x73, 0x41, 0x64, 0x64, 0x3b, 0x73, 0x65, 0x71, 0x75, 0x65, 0x6e, 0x74, 0x69, 0x61, 0x6c, 0x2f, 0x63, 0x6f, 0x6e, 0x76, 0x32, 0x64, 0x5f, 0x37, 0x35, 0x2f, 0x43, 0x6f, 0x6e, 0x76, 0x32, 0x44, 0x31, 0x00, 0x04, 0x00, 0x00, 0x00, 0x01, 0x00, 0x00, 0x00, 0x19, 0x00, 0x00, 0x00, 0x0c, 0x00, 0x00, 0x00, 0x20, 0x00, 0x00, 0x00, 0x1a, 0xcf, 0xff, 0xff, 0x00, 0x00, 0x00, 0x01, 0x18, 0x00, 0x00, 0x00, 0x28, 0x00, 0x00, 0x00, 0x44, 0x00, 0x00, 0x00, 0x19, 0x00, 0x00, 0x00, 0x00, 0x00, 0x00, 0x09, 0x10, 0x01, 0x00, 0x00, 0x04, 0x00, 0x00, 0x00, 0xff, 0xff, 0xff, 0xff, 0x19, 0x00, 0x00, 0x00, 0x0c, 0x00, 0x00, 0x00, 0x20, 0x00, 0x00, 0x00, 0x04, 0xcf, 0xff, 0xff, 0x08, 0x00, 0x00, 0x00, 0x10, 0x00, 0x00, 0x00, 0x01, 0x00, 0x00, 0x00, 0x80, 0xff, 0xff, 0xff, 0xff, 0xff, 0xff, 0xff, 0x01, 0x00, 0x00, 0x00, 0x69, 0xa8, 0x6e, 0x3d, 0xd2, 0x00, 0x00, 0x00, 0x73, 0x65, 0x71, 0x75, 0x65, 0x6e, 0x74, 0x69, 0x61, 0x6c, 0x2f, 0x61, 0x63, 0x74, 0x69, 0x76, 0x61, 0x74, 0x69, 0x6f, 0x6e, 0x5f, 0x39, 0x35, 0x2f, 0x52, 0x65, 0x6c, 0x75, 0x3b, 0x73, 0x65, 0x71, 0x75, 0x65, 0x6e, 0x74, 0x69, 0x61, 0x6c, 0x2f, 0x62, 0x61, 0x74, 0x63, 0x68, 0x5f, 0x6e, 0x6f, 0x72, 0x6d, 0x61, 0x6c, 0x69, 0x7a, 0x61, 0x74, 0x69, 0x6f, 0x6e, 0x5f, 0x39, 0x35, 0x2f, 0x46, 0x75, 0x73, 0x65, 0x64, 0x42, 0x61, 0x74, 0x63, 0x68, 0x4e, 0x6f, 0x72, 0x6d, 0x56, 0x33, 0x3b, 0x73, 0x65, 0x71, 0x75, 0x65, 0x6e, 0x74, 0x69, 0x61, 0x6c, 0x2f, 0x63, 0x6f, 0x6e, 0x76, 0x32, 0x64, 0x5f, 0x37, 0x32, 0x2f, 0x42, 0x69, 0x61, 0x73, 0x41, 0x64, 0x64, 0x2f, 0x52, 0x65, 0x61, 0x64, 0x56, 0x61, 0x72, 0x69, 0x61, 0x62, 0x6c, 0x65, 0x4f, 0x70, 0x3b, 0x73, 0x65, 0x71, 0x75, 0x65, 0x6e, 0x74, 0x69, 0x61, 0x6c, 0x2f, 0x63, 0x6f, 0x6e, 0x76, 0x32, 0x64, 0x5f, 0x37, 0x32, 0x2f, 0x42, 0x69, 0x61, 0x73, 0x41, 0x64, 0x64, 0x3b, 0x73, 0x65, 0x71, 0x75, 0x65, 0x6e, 0x74, 0x69, 0x61, 0x6c, 0x2f, 0x63, 0x6f, 0x6e, 0x76, 0x32, 0x64, 0x5f, 0x37, 0x35, 0x2f, 0x43, 0x6f, 0x6e, 0x76, 0x32, 0x44, 0x3b, 0x73, 0x65, 0x71, 0x75, 0x65, 0x6e, 0x74, 0x69, 0x61, 0x6c, 0x2f, 0x63, 0x6f, 0x6e, 0x76, 0x32, 0x64, 0x5f, 0x37, 0x32, 0x2f, 0x43, 0x6f, 0x6e, 0x76, 0x32, 0x44, 0x31, 0x00, 0x00, 0x04, 0x00, 0x00, 0x00, 0x01, 0x00, 0x00, 0x00, 0x19, 0x00, 0x00, 0x00, 0x0c, 0x00, 0x00, 0x00, 0x20, 0x00, 0x00, 0x00, 0x5a, 0xd0, 0xff, 0xff, 0x00, 0x00, 0x00, 0x01, 0x18, 0x00, 0x00, 0x00, 0x28, 0x00, 0x00, 0x00, 0x44, 0x00, 0x00, 0x00, 0x18, 0x00, 0x00, 0x00, 0x00, 0x00, 0x00, 0x09, 0x30, 0x01, 0x00, 0x00, 0x04, 0x00, 0x00, 0x00, 0xff, 0xff, 0xff, 0xff, 0x19, 0x00, 0x00, 0x00, 0x0c, 0x00, 0x00, 0x00, 0x20, 0x00, 0x00, 0x00, 0x44, 0xd0, 0xff, 0xff, 0x08, 0x00, 0x00, 0x00, 0x10, 0x00, 0x00, 0x00, 0x01, 0x00, 0x00, 0x00, 0x80, 0xff, 0xff, 0xff, 0xff, 0xff, 0xff, 0xff, 0x01, 0x00, 0x00, 0x00, 0x92, 0x69, 0x8f, 0x3d, 0xf3, 0x00, 0x00, 0x00, 0x73, 0x65, 0x71, 0x75, 0x65, 0x6e, 0x74, 0x69, 0x61, 0x6c, 0x2f, 0x61, 0x63, 0x74, 0x69, 0x76, 0x61, 0x74, 0x69, 0x6f, 0x6e, 0x5f, 0x39, 0x34, 0x2f, 0x52, 0x65, 0x6c, 0x75, 0x3b, 0x73, 0x65, 0x71, 0x75, 0x65, 0x6e, 0x74, 0x69, 0x61, 0x6c, 0x2f, 0x62, 0x61, 0x74, 0x63, 0x68, 0x5f, 0x6e, 0x6f, 0x72, 0x6d, 0x61, 0x6c, 0x69, 0x7a, 0x61, 0x74, 0x69, 0x6f, 0x6e, 0x5f, 0x39, 0x34, 0x2f, 0x46, 0x75, 0x73, 0x65, 0x64, 0x42, 0x61, 0x74, 0x63, 0x68, 0x4e, 0x6f, 0x72, 0x6d, 0x56, 0x33, 0x3b, 0x73, 0x65, 0x71, 0x75, 0x65, 0x6e, 0x74, 0x69, 0x61, 0x6c, 0x2f, 0x64, 0x65, 0x70, 0x74, 0x68, 0x77, 0x69, 0x73, 0x65, 0x5f, 0x63, 0x6f, 0x6e, 0x76, 0x32, 0x64, 0x5f, 0x32, 0x32, 0x2f, 0x64, 0x65, 0x70, 0x74, 0x68, 0x77, 0x69, 0x73, 0x65, 0x3b, 0x73, 0x65, 0x71, 0x75, 0x65, 0x6e, 0x74, 0x69, 0x61, 0x6c, 0x2f, 0x64, 0x65, 0x70, 0x74, 0x68, 0x77, 0x69, 0x73, 0x65, 0x5f, 0x63, 0x6f, 0x6e, 0x76, 0x32, 0x64, 0x5f, 0x32, 0x32, 0x2f, 0x42, 0x69, 0x61, 0x73, 0x41, 0x64, 0x64, 0x2f, 0x52, 0x65, 0x61, 0x64, 0x56, 0x61, 0x72, 0x69, 0x61, 0x62, 0x6c, 0x65, 0x4f, 0x70, 0x3b, 0x73, 0x65, 0x71, 0x75, 0x65, 0x6e, 0x74, 0x69, 0x61, 0x6c, 0x2f, 0x64, 0x65, 0x70, 0x74, 0x68, 0x77, 0x69, 0x73, 0x65, 0x5f, 0x63, 0x6f, 0x6e, 0x76, 0x32, 0x64, 0x5f, 0x32, 0x32, 0x2f, 0x42, 0x69, 0x61, 0x73, 0x41, 0x64, 0x64, 0x3b, 0x73, 0x65, 0x71, 0x75, 0x65, 0x6e, 0x74, 0x69, 0x61, 0x6c, 0x2f, 0x63, 0x6f, 0x6e, 0x76, 0x32, 0x64, 0x5f, 0x37, 0x35, 0x2f, 0x43, 0x6f, 0x6e, 0x76, 0x32, 0x44, 0x31, 0x00, 0x04, 0x00, 0x00, 0x00, 0x01, 0x00, 0x00, 0x00, 0x19, 0x00, 0x00, 0x00, 0x0c, 0x00, 0x00, 0x00, 0x20, 0x00, 0x00, 0x00, 0xba, 0xd1, 0xff, 0xff, 0x00, 0x00, 0x00, 0x01, 0x18, 0x00, 0x00, 0x00, 0x28, 0x00, 0x00, 0x00, 0x44, 0x00, 0x00, 0x00, 0x17, 0x00, 0x00, 0x00, 0x00, 0x00, 0x00, 0x09, 0x10, 0x01, 0x00, 0x00, 0x04, 0x00, 0x00, 0x00, 0xff, 0xff, 0xff, 0xff, 0x19, 0x00, 0x00, 0x00, 0x0c, 0x00, 0x00, 0x00, 0x20, 0x00, 0x00, 0x00, 0xa4, 0xd1, 0xff, 0xff, 0x08, 0x00, 0x00, 0x00, 0x10, 0x00, 0x00, 0x00, 0x01, 0x00, 0x00, 0x00, 0x80, 0xff, 0xff, 0xff, 0xff, 0xff, 0xff, 0xff, 0x01, 0x00, 0x00, 0x00, 0x30, 0xa8, 0x18, 0x3d, 0xd2, 0x00, 0x00, 0x00, 0x73, 0x65, 0x71, 0x75, 0x65, 0x6e, 0x74, 0x69, 0x61, 0x6c, 0x2f, 0x61, 0x63, 0x74, 0x69, 0x76, 0x61, 0x74, 0x69, 0x6f, 0x6e, 0x5f, 0x39, 0x33, 0x2f, 0x52, 0x65, 0x6c, 0x75, 0x3b, 0x73, 0x65, 0x71, 0x75, 0x65, 0x6e, 0x74, 0x69, 0x61, 0x6c, 0x2f, 0x62, 0x61, 0x74, 0x63, 0x68, 0x5f, 0x6e, 0x6f, 0x72, 0x6d, 0x61, 0x6c, 0x69, 0x7a, 0x61, 0x74, 0x69, 0x6f, 0x6e, 0x5f, 0x39, 0x33, 0x2f, 0x46, 0x75, 0x73, 0x65, 0x64, 0x42, 0x61, 0x74, 0x63, 0x68, 0x4e, 0x6f, 0x72, 0x6d, 0x56, 0x33, 0x3b, 0x73, 0x65, 0x71, 0x75, 0x65, 0x6e, 0x74, 0x69, 0x61, 0x6c, 0x2f, 0x63, 0x6f, 0x6e, 0x76, 0x32, 0x64, 0x5f, 0x37, 0x31, 0x2f, 0x42, 0x69, 0x61, 0x73, 0x41, 0x64, 0x64, 0x2f, 0x52, 0x65, 0x61, 0x64, 0x56, 0x61, 0x72, 0x69, 0x61, 0x62, 0x6c, 0x65, 0x4f, 0x70, 0x3b, 0x73, 0x65, 0x71, 0x75, 0x65, 0x6e, 0x74, 0x69, 0x61, 0x6c, 0x2f, 0x63, 0x6f, 0x6e, 0x76, 0x32, 0x64, 0x5f, 0x37, 0x31, 0x2f, 0x42, 0x69, 0x61, 0x73, 0x41, 0x64, 0x64, 0x3b, 0x73, 0x65, 0x71, 0x75, 0x65, 0x6e, 0x74, 0x69, 0x61, 0x6c, 0x2f, 0x63, 0x6f, 0x6e, 0x76, 0x32, 0x64, 0x5f, 0x37, 0x35, 0x2f, 0x43, 0x6f, 0x6e, 0x76, 0x32, 0x44, 0x3b, 0x73, 0x65, 0x71, 0x75, 0x65, 0x6e, 0x74, 0x69, 0x61, 0x6c, 0x2f, 0x63, 0x6f, 0x6e, 0x76, 0x32, 0x64, 0x5f, 0x37, 0x31, 0x2f, 0x43, 0x6f, 0x6e, 0x76, 0x32, 0x44, 0x31, 0x00, 0x00, 0x04, 0x00, 0x00, 0x00, 0x01, 0x00, 0x00, 0x00, 0x19, 0x00, 0x00, 0x00, 0x0c, 0x00, 0x00, 0x00, 0x20, 0x00, 0x00, 0x00, 0x5e, 0xd3, 0xff, 0xff, 0x00, 0x00, 0x00, 0x01, 0x14, 0x00, 0x00, 0x00, 0xa8, 0x01, 0x00, 0x00, 0x16, 0x00, 0x00, 0x00, 0x00, 0x00, 0x00, 0x09, 0xbc, 0x01, 0x00, 0x00, 0xcc, 0xd2, 0xff, 0xff, 0x08, 0x00, 0x00, 0x00, 0x0c, 0x01, 0x00, 0x00, 0x20, 0x00, 0x00, 0x00, 0x00, 0x00, 0x00, 0x00, 0x00, 0x00, 0x00, 0x00, 0x00, 0x00, 0x00, 0x00, 0x00, 0x00, 0x00, 0x00, 0x00, 0x00, 0x00, 0x00, 0x00, 0x00, 0x00, 0x00, 0x00, 0x00, 0x00, 0x00, 0x00, 0x00, 0x00, 0x00, 0x00, 0x00, 0x00, 0x00, 0x00, 0x00, 0x00, 0x00, 0x00, 0x00, 0x00, 0x00, 0x00, 0x00, 0x00, 0x00, 0x00, 0x00, 0x00, 0x00, 0x00, 0x00, 0x00, 0x00, 0x00, 0x00, 0x00, 0x00, 0x00, 0x00, 0x00, 0x00, 0x00, 0x00, 0x00, 0x00, 0x00, 0x00, 0x00, 0x00, 0x00, 0x00, 0x00, 0x00, 0x00, 0x00, 0x00, 0x00, 0x00, 0x00, 0x00, 0x00, 0x00, 0x00, 0x00, 0x00, 0x00, 0x00, 0x00, 0x00, 0x00, 0x00, 0x00, 0x00, 0x00, 0x00, 0x00, 0x00, 0x00, 0x00, 0x00, 0x00, 0x00, 0x00, 0x00, 0x00, 0x00, 0x00, 0x00, 0x00, 0x00, 0x00, 0x00, 0x00, 0x00, 0x00, 0x00, 0x00, 0x00, 0x00, 0x00, 0x00, 0x00, 0x00, 0x00, 0x00, 0x00, 0x00, 0x00, 0x00, 0x00, 0x00, 0x00, 0x00, 0x00, 0x00, 0x00, 0x00, 0x00, 0x00, 0x00, 0x00, 0x00, 0x00, 0x00, 0x00, 0x00, 0x00, 0x00, 0x00, 0x00, 0x00, 0x00, 0x00, 0x00, 0x00, 0x00, 0x00, 0x00, 0x00, 0x00, 0x00, 0x00, 0x00, 0x00, 0x00, 0x00, 0x00, 0x00, 0x00, 0x00, 0x00, 0x00, 0x00, 0x00, 0x00, 0x00, 0x00, 0x00, 0x00, 0x00, 0x00, 0x00, 0x00, 0x00, 0x00, 0x00, 0x00, 0x00, 0x00, 0x00, 0x00, 0x00, 0x00, 0x00, 0x00, 0x00, 0x00, 0x00, 0x00, 0x00, 0x00, 0x00, 0x00, 0x00, 0x00, 0x00, 0x00, 0x00, 0x00, 0x00, 0x00, 0x00, 0x00, 0x00, 0x00, 0x00, 0x00, 0x00, 0x00, 0x00, 0x00, 0x00, 0x00, 0x00, 0x00, 0x00, 0x00, 0x00, 0x00, 0x00, 0x00, 0x00, 0x00, 0x00, 0x00, 0x00, 0x00, 0x00, 0x00, 0x00, 0x00, 0x00, 0x00, 0x00, 0x00, 0x00, 0x00, 0x00, 0x00, 0x00, 0x00, 0x00, 0x00, 0x00, 0x00, 0x00, 0x00, 0x20, 0x00, 0x00, 0x00, 0xd7, 0xe4, 0x61, 0x38, 0x45, 0x7f, 0x8b, 0x38, 0xfe, 0xcb, 0xaf, 0x38, 0x31, 0xbc, 0x6d, 0x38, 0x30, 0x67, 0xd1, 0x38, 0x0e, 0x4f, 0xf2, 0x38, 0x54, 0x81, 0x9e, 0x38, 0x9c, 0x85, 0x3a, 0x38, 0x2a, 0xcb, 0xd3, 0x38, 0x9e, 0x8b, 0xa8, 0x38, 0x93, 0x9b, 0x96, 0x38, 0xf2, 0xcc, 0xde, 0x38, 0xd1, 0xa8, 0xc2, 0x38, 0x14, 0x85, 0x45, 0x38, 0x17, 0x3d, 0x35, 0x38, 0x4b, 0x7d, 0xb7, 0x38, 0x53, 0x32, 0x88, 0x38, 0xae, 0x43, 0x44, 0x38, 0x0a, 0xf0, 0x37, 0x38, 0x1f, 0xce, 0xdd, 0x38, 0x18, 0x01, 0x88, 0x38, 0xc7, 0xf8, 0x16, 0x38, 0x69, 0xed, 0x56, 0x39, 0xf0, 0xc0, 0x0f, 0x38, 0x90, 0x7c, 0x51, 0x38, 0x4b, 0xe0, 0xe8, 0x38, 0x9c, 0xf3, 0x2e, 0x38, 0xc4, 0x66, 0xb9, 0x38, 0xd8, 0xee, 0x83, 0x38, 0x61, 0xc9, 0x90, 0x38, 0x71, 0x6d, 0xde, 0x38, 0xe1, 0xf7, 0xaf, 0x38, 0x1b, 0x00, 0x00, 0x00, 0x73, 0x65, 0x71, 0x75, 0x65, 0x6e, 0x74, 0x69, 0x61, 0x6c, 0x2f, 0x63, 0x6f, 0x6e, 0x76, 0x32, 0x64, 0x5f, 0x37, 0x31, 0x2f, 0x43, 0x6f, 0x6e, 0x76, 0x32, 0x44, 0x00, 0x04, 0x00, 0x00, 0x00, 0x20, 0x00, 0x00, 0x00, 0x0a, 0x00, 0x00, 0x00, 0x04, 0x00, 0x00, 0x00, 0x01, 0x00, 0x00, 0x00, 0x46, 0xd5, 0xff, 0xff, 0x00, 0x00, 0x00, 0x01, 0x14, 0x00, 0x00, 0x00, 0xa8, 0x01, 0x00, 0x00, 0x15, 0x00, 0x00, 0x00, 0x00, 0x00, 0x00, 0x02, 0x74, 0x02, 0x00, 0x00, 0xb4, 0xd4, 0xff, 0xff, 0x08, 0x00, 0x00, 0x00, 0x0c, 0x01, 0x00, 0x00, 0x20, 0x00, 0x00, 0x00, 0x00, 0x00, 0x00, 0x00, 0x00, 0x00, 0x00, 0x00, 0x00, 0x00, 0x00, 0x00, 0x00, 0x00, 0x00, 0x00, 0x00, 0x00, 0x00, 0x00, 0x00, 0x00, 0x00, 0x00, 0x00, 0x00, 0x00, 0x00, 0x00, 0x00, 0x00, 0x00, 0x00, 0x00, 0x00, 0x00, 0x00, 0x00, 0x00, 0x00, 0x00, 0x00, 0x00, 0x00, 0x00, 0x00, 0x00, 0x00, 0x00, 0x00, 0x00, 0x00, 0x00, 0x00, 0x00, 0x00, 0x00, 0x00, 0x00, 0x00, 0x00, 0x00, 0x00, 0x00, 0x00, 0x00, 0x00, 0x00, 0x00, 0x00, 0x00, 0x00, 0x00, 0x00, 0x00, 0x00, 0x00, 0x00, 0x00, 0x00, 0x00, 0x00, 0x00, 0x00, 0x00, 0x00, 0x00, 0x00, 0x00, 0x00, 0x00, 0x00, 0x00, 0x00, 0x00, 0x00, 0x00, 0x00, 0x00, 0x00, 0x00, 0x00, 0x00, 0x00, 0x00, 0x00, 0x00, 0x00, 0x00, 0x00, 0x00, 0x00, 0x00, 0x00, 0x00, 0x00, 0x00, 0x00, 0x00, 0x00, 0x00, 0x00, 0x00, 0x00, 0x00, 0x00, 0x00, 0x00, 0x00, 0x00, 0x00, 0x00, 0x00, 0x00, 0x00, 0x00, 0x00, 0x00, 0x00, 0x00, 0x00, 0x00, 0x00, 0x00, 0x00, 0x00, 0x00, 0x00, 0x00, 0x00, 0x00, 0x00, 0x00, 0x00, 0x00, 0x00, 0x00, 0x00, 0x00, 0x00, 0x00, 0x00, 0x00, 0x00, 0x00, 0x00, 0x00, 0x00, 0x00, 0x00, 0x00, 0x00, 0x00, 0x00, 0x00, 0x00, 0x00, 0x00, 0x00, 0x00, 0x00, 0x00, 0x00, 0x00, 0x00, 0x00, 0x00, 0x00, 0x00, 0x00, 0x00, 0x00, 0x00, 0x00, 0x00, 0x00, 0x00, 0x00, 0x00, 0x00, 0x00, 0x00, 0x00, 0x00, 0x00, 0x00, 0x00, 0x00, 0x00, 0x00, 0x00, 0x00, 0x00, 0x00, 0x00, 0x00, 0x00, 0x00, 0x00, 0x00, 0x00, 0x00, 0x00, 0x00, 0x00, 0x00, 0x00, 0x00, 0x00, 0x00, 0x00, 0x00, 0x00, 0x00, 0x00, 0x00, 0x00, 0x00, 0x00, 0x00, 0x00, 0x00, 0x00, 0x00, 0x00, 0x00, 0x00, 0x00, 0x00, 0x00, 0x00, 0x00, 0x00, 0x00, 0x00, 0x00, 0x00, 0x00, 0x00, 0x00, 0x20, 0x00, 0x00, 0x00, 0xd7, 0xe4, 0x61, 0x38, 0x45, 0x7f, 0x8b, 0x38, 0xfe, 0xcb, 0xaf, 0x38, 0x31, 0xbc, 0x6d, 0x38, 0x30, 0x67, 0xd1, 0x38, 0x0e, 0x4f, 0xf2, 0x38, 0x54, 0x81, 0x9e, 0x38, 0x9c, 0x85, 0x3a, 0x38, 0x2a, 0xcb, 0xd3, 0x38, 0x9e, 0x8b, 0xa8, 0x38, 0x93, 0x9b, 0x96, 0x38, 0xf2, 0xcc, 0xde, 0x38, 0xd1, 0xa8, 0xc2, 0x38, 0x14, 0x85, 0x45, 0x38, 0x17, 0x3d, 0x35, 0x38, 0x4b, 0x7d, 0xb7, 0x38, 0x53, 0x32, 0x88, 0x38, 0xae, 0x43, 0x44, 0x38, 0x0a, 0xf0, 0x37, 0x38, 0x1f, 0xce, 0xdd, 0x38, 0x18, 0x01, 0x88, 0x38, 0xc7, 0xf8, 0x16, 0x38, 0x69, 0xed, 0x56, 0x39, 0xf0, 0xc0, 0x0f, 0x38, 0x90, 0x7c, 0x51, 0x38, 0x4b, 0xe0, 0xe8, 0x38, 0x9c, 0xf3, 0x2e, 0x38, 0xc4, 0x66, 0xb9, 0x38, 0xd8, 0xee, 0x83, 0x38, 0x61, 0xc9, 0x90, 0x38, 0x71, 0x6d, 0xde, 0x38, 0xe1, 0xf7, 0xaf, 0x38, 0xd1, 0x00, 0x00, 0x00, 0x73, 0x65, 0x71, 0x75, 0x65, 0x6e, 0x74, 0x69, 0x61, 0x6c, 0x2f, 0x61, 0x63, 0x74, 0x69, 0x76, 0x61, 0x74, 0x69, 0x6f, 0x6e, 0x5f, 0x39, 0x33, 0x2f, 0x52, 0x65, 0x6c, 0x75, 0x3b, 0x73, 0x65, 0x71, 0x75, 0x65, 0x6e, 0x74, 0x69, 0x61, 0x6c, 0x2f, 0x62, 0x61, 0x74, 0x63, 0x68, 0x5f, 0x6e, 0x6f, 0x72, 0x6d, 0x61, 0x6c, 0x69, 0x7a, 0x61, 0x74, 0x69, 0x6f, 0x6e, 0x5f, 0x39, 0x33, 0x2f, 0x46, 0x75, 0x73, 0x65, 0x64, 0x42, 0x61, 0x74, 0x63, 0x68, 0x4e, 0x6f, 0x72, 0x6d, 0x56, 0x33, 0x3b, 0x73, 0x65, 0x71, 0x75, 0x65, 0x6e, 0x74, 0x69, 0x61, 0x6c, 0x2f, 0x63, 0x6f, 0x6e, 0x76, 0x32, 0x64, 0x5f, 0x37, 0x31, 0x2f, 0x42, 0x69, 0x61, 0x73, 0x41, 0x64, 0x64, 0x2f, 0x52, 0x65, 0x61, 0x64, 0x56, 0x61, 0x72, 0x69, 0x61, 0x62, 0x6c, 0x65, 0x4f, 0x70, 0x3b, 0x73, 0x65, 0x71, 0x75, 0x65, 0x6e, 0x74, 0x69, 0x61, 0x6c, 0x2f, 0x63, 0x6f, 0x6e, 0x76, 0x32, 0x64, 0x5f, 0x37, 0x31, 0x2f, 0x42, 0x69, 0x61, 0x73, 0x41, 0x64, 0x64, 0x3b, 0x73, 0x65, 0x71, 0x75, 0x65, 0x6e, 0x74, 0x69, 0x61, 0x6c, 0x2f, 0x63, 0x6f, 0x6e, 0x76, 0x32, 0x64, 0x5f, 0x37, 0x35, 0x2f, 0x43, 0x6f, 0x6e, 0x76, 0x32, 0x44, 0x3b, 0x73, 0x65, 0x71, 0x75, 0x65, 0x6e, 0x74, 0x69, 0x61, 0x6c, 0x2f, 0x63, 0x6f, 0x6e, 0x76, 0x32, 0x64, 0x5f, 0x37, 0x31, 0x2f, 0x43, 0x6f, 0x6e, 0x76, 0x32, 0x44, 0x00, 0x00, 0x00, 0x01, 0x00, 0x00, 0x00, 0x20, 0x00, 0x00, 0x00, 0xda, 0xd7, 0xff, 0xff, 0x00, 0x00, 0x00, 0x01, 0x14, 0x00, 0x00, 0x00, 0xa8, 0x01, 0x00, 0x00, 0x14, 0x00, 0x00, 0x00, 0x00, 0x00, 0x00, 0x09, 0x78, 0x02, 0x00, 0x00, 0x92, 0xe2, 0xff, 0xff, 0x03, 0x00, 0x00, 0x00, 0x08, 0x00, 0x00, 0x00, 0x08, 0x01, 0x00, 0x00, 0x20, 0x00, 0x00, 0x00, 0x00, 0x00, 0x00, 0x00, 0x00, 0x00, 0x00, 0x00, 0x00, 0x00, 0x00, 0x00, 0x00, 0x00, 0x00, 0x00, 0x00, 0x00, 0x00, 0x00, 0x00, 0x00, 0x00, 0x00, 0x00, 0x00, 0x00, 0x00, 0x00, 0x00, 0x00, 0x00, 0x00, 0x00, 0x00, 0x00, 0x00, 0x00, 0x00, 0x00, 0x00, 0x00, 0x00, 0x00, 0x00, 0x00, 0x00, 0x00, 0x00, 0x00, 0x00, 0x00, 0x00, 0x00, 0x00, 0x00, 0x00, 0x00, 0x00, 0x00, 0x00, 0x00, 0x00, 0x00, 0x00, 0x00, 0x00, 0x00, 0x00, 0x00, 0x00, 0x00, 0x00, 0x00, 0x00, 0x00, 0x00, 0x00, 0x00, 0x00, 0x00, 0x00, 0x00, 0x00, 0x00, 0x00, 0x00, 0x00, 0x00, 0x00, 0x00, 0x00, 0x00, 0x00, 0x00, 0x00, 0x00, 0x00, 0x00, 0x00, 0x00, 0x00, 0x00, 0x00, 0x00, 0x00, 0x00, 0x00, 0x00, 0x00, 0x00, 0x00, 0x00, 0x00, 0x00, 0x00, 0x00, 0x00, 0x00, 0x00, 0x00, 0x00, 0x00, 0x00, 0x00, 0x00, 0x00, 0x00, 0x00, 0x00, 0x00, 0x00, 0x00, 0x00, 0x00, 0x00, 0x00, 0x00, 0x00, 0x00, 0x00, 0x00, 0x00, 0x00, 0x00, 0x00, 0x00, 0x00, 0x00, 0x00, 0x00, 0x00, 0x00, 0x00, 0x00, 0x00, 0x00, 0x00, 0x00, 0x00, 0x00, 0x00, 0x00, 0x00, 0x00, 0x00, 0x00, 0x00, 0x00, 0x00, 0x00, 0x00, 0x00, 0x00, 0x00, 0x00, 0x00, 0x00, 0x00, 0x00, 0x00, 0x00, 0x00, 0x00, 0x00, 0x00, 0x00, 0x00, 0x00, 0x00, 0x00, 0x00, 0x00, 0x00, 0x00, 0x00, 0x00, 0x00, 0x00, 0x00, 0x00, 0x00, 0x00, 0x00, 0x00, 0x00, 0x00, 0x00, 0x00, 0x00, 0x00, 0x00, 0x00, 0x00, 0x00, 0x00, 0x00, 0x00, 0x00, 0x00, 0x00, 0x00, 0x00, 0x00, 0x00, 0x00, 0x00, 0x00, 0x00, 0x00, 0x00, 0x00, 0x00, 0x00, 0x00, 0x00, 0x00, 0x00, 0x00, 0x00, 0x00, 0x00, 0x00, 0x00, 0x00, 0x00, 0x00, 0x00, 0x00, 0x00, 0x00, 0x00, 0x00, 0x00, 0x00, 0x00, 0x20, 0x00, 0x00, 0x00, 0xfe, 0x5f, 0xff, 0x3c, 0x8d, 0xfa, 0x08, 0x3c, 0xa1, 0xf5, 0x8f, 0x3b, 0x09, 0x41, 0x1c, 0x3c, 0xe0, 0x37, 0xd6, 0x3b, 0x15, 0x67, 0x13, 0x3c, 0xbd, 0x73, 0xaa, 0x3b, 0xac, 0x3e, 0x1b, 0x3c, 0x63, 0x36, 0x47, 0x3c, 0x62, 0x76, 0x98, 0x3b, 0xe1, 0x22, 0x98, 0x3b, 0x04, 0x74, 0x5d, 0x3c, 0x8e, 0xfb, 0xc5, 0x3b, 0xd5, 0x99, 0x71, 0x3c, 0x7c, 0x2f, 0x96, 0x3c, 0xb9, 0x69, 0xa5, 0x3b, 0xcd, 0x74, 0xec, 0x3b, 0x39, 0x03, 0xeb, 0x3b, 0x9b, 0x16, 0x5f, 0x3c, 0xdd, 0x1c, 0xa3, 0x3b, 0x97, 0x2a, 0x3e, 0x3c, 0xbf, 0x7b, 0x7c, 0x3c, 0x15, 0x4c, 0xd6, 0x3b, 0x41, 0x51, 0xeb, 0x3b, 0x1a, 0xd7, 0x98, 0x3c, 0xbb, 0x31, 0xbd, 0x3b, 0x0f, 0x7f, 0xb1, 0x3b, 0x9d, 0xec, 0x36, 0x3c, 0x3a, 0x84, 0xcb, 0x3b, 0x08, 0xd5, 0x4a, 0x3c, 0xc3, 0xba, 0xd9, 0x3b, 0x6c, 0x2c, 0x1f, 0x3c, 0xd4, 0x00, 0x00, 0x00, 0x73, 0x65, 0x71, 0x75, 0x65, 0x6e, 0x74, 0x69, 0x61, 0x6c, 0x2f, 0x62, 0x61, 0x74, 0x63, 0x68, 0x5f, 0x6e, 0x6f, 0x72, 0x6d, 0x61, 0x6c, 0x69, 0x7a, 0x61, 0x74, 0x69, 0x6f, 0x6e, 0x5f, 0x39, 0x34, 0x2f, 0x46, 0x75, 0x73, 0x65, 0x64, 0x42, 0x61, 0x74, 0x63, 0x68, 0x4e, 0x6f, 0x72, 0x6d, 0x56, 0x33, 0x3b, 0x73, 0x65, 0x71, 0x75, 0x65, 0x6e, 0x74, 0x69, 0x61, 0x6c, 0x2f, 0x64, 0x65, 0x70, 0x74, 0x68, 0x77, 0x69, 0x73, 0x65, 0x5f, 0x63, 0x6f, 0x6e, 0x76, 0x32, 0x64, 0x5f, 0x32, 0x32, 0x2f, 0x64, 0x65, 0x70, 0x74, 0x68, 0x77, 0x69, 0x73, 0x65, 0x3b, 0x73, 0x65, 0x71, 0x75, 0x65, 0x6e, 0x74, 0x69, 0x61, 0x6c, 0x2f, 0x64, 0x65, 0x70, 0x74, 0x68, 0x77, 0x69, 0x73, 0x65, 0x5f, 0x63, 0x6f, 0x6e, 0x76, 0x32, 0x64, 0x5f, 0x32, 0x32, 0x2f, 0x42, 0x69, 0x61, 0x73, 0x41, 0x64, 0x64, 0x2f, 0x52, 0x65, 0x61, 0x64, 0x56, 0x61, 0x72, 0x69, 0x61, 0x62, 0x6c, 0x65, 0x4f, 0x70, 0x3b, 0x73, 0x65, 0x71, 0x75, 0x65, 0x6e, 0x74, 0x69, 0x61, 0x6c, 0x2f, 0x64, 0x65, 0x70, 0x74, 0x68, 0x77, 0x69, 0x73, 0x65, 0x5f, 0x63, 0x6f, 0x6e, 0x76, 0x32, 0x64, 0x5f, 0x32, 0x32, 0x2f, 0x42, 0x69, 0x61, 0x73, 0x41, 0x64, 0x64, 0x3b, 0x73, 0x65, 0x71, 0x75, 0x65, 0x6e, 0x74, 0x69, 0x61, 0x6c, 0x2f, 0x63, 0x6f, 0x6e, 0x76, 0x32, 0x64, 0x5f, 0x37, 0x35, 0x2f, 0x43, 0x6f, 0x6e, 0x76, 0x32, 0x44, 0x00, 0x00, 0x00, 0x00, 0x04, 0x00, 0x00, 0x00, 0x01, 0x00, 0x00, 0x00, 0x03, 0x00, 0x00, 0x00, 0x03, 0x00, 0x00, 0x00, 0x20, 0x00, 0x00, 0x00, 0x7e, 0xda, 0xff, 0xff, 0x00, 0x00, 0x00, 0x01, 0x14, 0x00, 0x00, 0x00, 0xa4, 0x01, 0x00, 0x00, 0x13, 0x00, 0x00, 0x00, 0x00, 0x00, 0x00, 0x02, 0x90, 0x02, 0x00, 0x00, 0xec, 0xd9, 0xff, 0xff, 0x08, 0x00, 0x00, 0x00, 0x08, 0x01, 0x00, 0x00, 0x20, 0x00, 0x00, 0x00, 0x00, 0x00, 0x00, 0x00, 0x00, 0x00, 0x00, 0x00, 0x00, 0x00, 0x00, 0x00, 0x00, 0x00, 0x00, 0x00, 0x00, 0x00, 0x00, 0x00, 0x00, 0x00, 0x00, 0x00, 0x00, 0x00, 0x00, 0x00, 0x00, 0x00, 0x00, 0x00, 0x00, 0x00, 0x00, 0x00, 0x00, 0x00, 0x00, 0x00, 0x00, 0x00, 0x00, 0x00, 0x00, 0x00, 0x00, 0x00, 0x00, 0x00, 0x00, 0x00, 0x00, 0x00, 0x00, 0x00, 0x00, 0x00, 0x00, 0x00, 0x00, 0x00, 0x00, 0x00, 0x00, 0x00, 0x00, 0x00, 0x00, 0x00, 0x00, 0x00, 0x00, 0x00, 0x00, 0x00, 0x00, 0x00, 0x00, 0x00, 0x00, 0x00, 0x00, 0x00, 0x00, 0x00, 0x00, 0x00, 0x00, 0x00, 0x00, 0x00, 0x00, 0x00, 0x00, 0x00, 0x00, 0x00, 0x00, 0x00, 0x00, 0x00, 0x00, 0x00, 0x00, 0x00, 0x00, 0x00, 0x00, 0x00, 0x00, 0x00, 0x00, 0x00, 0x00, 0x00, 0x00, 0x00, 0x00, 0x00, 0x00, 0x00, 0x00, 0x00, 0x00, 0x00, 0x00, 0x00, 0x00, 0x00, 0x00, 0x00, 0x00, 0x00, 0x00, 0x00, 0x00, 0x00, 0x00, 0x00, 0x00, 0x00, 0x00, 0x00, 0x00, 0x00, 0x00, 0x00, 0x00, 0x00, 0x00, 0x00, 0x00, 0x00, 0x00, 0x00, 0x00, 0x00, 0x00, 0x00, 0x00, 0x00, 0x00, 0x00, 0x00, 0x00, 0x00, 0x00, 0x00, 0x00, 0x00, 0x00, 0x00, 0x00, 0x00, 0x00, 0x00, 0x00, 0x00, 0x00, 0x00, 0x00, 0x00, 0x00, 0x00, 0x00, 0x00, 0x00, 0x00, 0x00, 0x00, 0x00, 0x00, 0x00, 0x00, 0x00, 0x00, 0x00, 0x00, 0x00, 0x00, 0x00, 0x00, 0x00, 0x00, 0x00, 0x00, 0x00, 0x00, 0x00, 0x00, 0x00, 0x00, 0x00, 0x00, 0x00, 0x00, 0x00, 0x00, 0x00, 0x00, 0x00, 0x00, 0x00, 0x00, 0x00, 0x00, 0x00, 0x00, 0x00, 0x00, 0x00, 0x00, 0x00, 0x00, 0x00, 0x00, 0x00, 0x00, 0x00, 0x00, 0x00, 0x00, 0x00, 0x00, 0x00, 0x00, 0x00, 0x00, 0x00, 0x00, 0x00, 0x00, 0x00, 0x00, 0x00, 0x20, 0x00, 0x00, 0x00, 0xc6, 0x48, 0x98, 0x3a, 0x84, 0x5d, 0xa3, 0x39, 0xd8, 0xb0, 0x2b, 0x39, 0x8b, 0x5a, 0xba, 0x39, 0xd4, 0x7b, 0x7f, 0x39, 0x18, 0xcc, 0xaf, 0x39, 0x68, 0x49, 0x4b, 0x39, 0x69, 0x26, 0xb9, 0x39, 0x58, 0x96, 0xed, 0x39, 0xe9, 0xd4, 0x35, 0x39, 0x52, 0x71, 0x35, 0x39, 0x60, 0x0e, 0x04, 0x3a, 0xdd, 0x1e, 0x6c, 0x39, 0x11, 0x12, 0x10, 0x3a, 0xba, 0x1d, 0x33, 0x3a, 0xe4, 0x46, 0x45, 0x39, 0xb3, 0x00, 0x8d, 0x39, 0x50, 0x24, 0x8c, 0x39, 0xfd, 0x07, 0x05, 0x3a, 0x99, 0x88, 0x42, 0x39, 0x73, 0xcc, 0xe2, 0x39, 0x5a, 0x8f, 0x16, 0x3a, 0xed, 0x93, 0x7f, 0x39, 0xd8, 0x52, 0x8c, 0x39, 0x43, 0x48, 0x36, 0x3a, 0xa6, 0xa3, 0x61, 0x39, 0x1b, 0xb0, 0x53, 0x39, 0x56, 0x29, 0xda, 0x39, 0x6f, 0xb8, 0x72, 0x39, 0x7d, 0xe7, 0xf1, 0x39, 0xef, 0xd5, 0x81, 0x39, 0xe6, 0xd5, 0xbd, 0x39, 0xf2, 0x00, 0x00, 0x00, 0x73, 0x65, 0x71, 0x75, 0x65, 0x6e, 0x74, 0x69, 0x61, 0x6c, 0x2f, 0x61, 0x63, 0x74, 0x69, 0x76, 0x61, 0x74, 0x69, 0x6f, 0x6e, 0x5f, 0x39, 0x34, 0x2f, 0x52, 0x65, 0x6c, 0x75, 0x3b, 0x73, 0x65, 0x71, 0x75, 0x65, 0x6e, 0x74, 0x69, 0x61, 0x6c, 0x2f, 0x62, 0x61, 0x74, 0x63, 0x68, 0x5f, 0x6e, 0x6f, 0x72, 0x6d, 0x61, 0x6c, 0x69, 0x7a, 0x61, 0x74, 0x69, 0x6f, 0x6e, 0x5f, 0x39, 0x34, 0x2f, 0x46, 0x75, 0x73, 0x65, 0x64, 0x42, 0x61, 0x74, 0x63, 0x68, 0x4e, 0x6f, 0x72, 0x6d, 0x56, 0x33, 0x3b, 0x73, 0x65, 0x71, 0x75, 0x65, 0x6e, 0x74, 0x69, 0x61, 0x6c, 0x2f, 0x64, 0x65, 0x70, 0x74, 0x68, 0x77, 0x69, 0x73, 0x65, 0x5f, 0x63, 0x6f, 0x6e, 0x76, 0x32, 0x64, 0x5f, 0x32, 0x32, 0x2f, 0x64, 0x65, 0x70, 0x74, 0x68, 0x77, 0x69, 0x73, 0x65, 0x3b, 0x73, 0x65, 0x71, 0x75, 0x65, 0x6e, 0x74, 0x69, 0x61, 0x6c, 0x2f, 0x64, 0x65, 0x70, 0x74, 0x68, 0x77, 0x69, 0x73, 0x65, 0x5f, 0x63, 0x6f, 0x6e, 0x76, 0x32, 0x64, 0x5f, 0x32, 0x32, 0x2f, 0x42, 0x69, 0x61, 0x73, 0x41, 0x64, 0x64, 0x2f, 0x52, 0x65, 0x61, 0x64, 0x56, 0x61, 0x72, 0x69, 0x61, 0x62, 0x6c, 0x65, 0x4f, 0x70, 0x3b, 0x73, 0x65, 0x71, 0x75, 0x65, 0x6e, 0x74, 0x69, 0x61, 0x6c, 0x2f, 0x64, 0x65, 0x70, 0x74, 0x68, 0x77, 0x69, 0x73, 0x65, 0x5f, 0x63, 0x6f, 0x6e, 0x76, 0x32, 0x64, 0x5f, 0x32, 0x32, 0x2f, 0x42, 0x69, 0x61, 0x73, 0x41, 0x64, 0x64, 0x3b, 0x73, 0x65, 0x71, 0x75, 0x65, 0x6e, 0x74, 0x69, 0x61, 0x6c, 0x2f, 0x63, 0x6f, 0x6e, 0x76, 0x32, 0x64, 0x5f, 0x37, 0x35, 0x2f, 0x43, 0x6f, 0x6e, 0x76, 0x32, 0x44, 0x00, 0x00, 0x01, 0x00, 0x00, 0x00, 0x20, 0x00, 0x00, 0x00, 0x2e, 0xdd, 0xff, 0xff, 0x00, 0x00, 0x00, 0x01, 0x14, 0x00, 0x00, 0x00, 0xa8, 0x01, 0x00, 0x00, 0x12, 0x00, 0x00, 0x00, 0x00, 0x00, 0x00, 0x09, 0xbc, 0x01, 0x00, 0x00, 0x9c, 0xdc, 0xff, 0xff, 0x08, 0x00, 0x00, 0x00, 0x0c, 0x01, 0x00, 0x00, 0x20, 0x00, 0x00, 0x00, 0x00, 0x00, 0x00, 0x00, 0x00, 0x00, 0x00, 0x00, 0x00, 0x00, 0x00, 0x00, 0x00, 0x00, 0x00, 0x00, 0x00, 0x00, 0x00, 0x00, 0x00, 0x00, 0x00, 0x00, 0x00, 0x00, 0x00, 0x00, 0x00, 0x00, 0x00, 0x00, 0x00, 0x00, 0x00, 0x00, 0x00, 0x00, 0x00, 0x00, 0x00, 0x00, 0x00, 0x00, 0x00, 0x00, 0x00, 0x00, 0x00, 0x00, 0x00, 0x00, 0x00, 0x00, 0x00, 0x00, 0x00, 0x00, 0x00, 0x00, 0x00, 0x00, 0x00, 0x00, 0x00, 0x00, 0x00, 0x00, 0x00, 0x00, 0x00, 0x00, 0x00, 0x00, 0x00, 0x00, 0x00, 0x00, 0x00, 0x00, 0x00, 0x00, 0x00, 0x00, 0x00, 0x00, 0x00, 0x00, 0x00, 0x00, 0x00, 0x00, 0x00, 0x00, 0x00, 0x00, 0x00, 0x00, 0x00, 0x00, 0x00, 0x00, 0x00, 0x00, 0x00, 0x00, 0x00, 0x00, 0x00, 0x00, 0x00, 0x00, 0x00, 0x00, 0x00, 0x00, 0x00, 0x00, 0x00, 0x00, 0x00, 0x00, 0x00, 0x00, 0x00, 0x00, 0x00, 0x00, 0x00, 0x00, 0x00, 0x00, 0x00, 0x00, 0x00, 0x00, 0x00, 0x00, 0x00, 0x00, 0x00, 0x00, 0x00, 0x00, 0x00, 0x00, 0x00, 0x00, 0x00, 0x00, 0x00, 0x00, 0x00, 0x00, 0x00, 0x00, 0x00, 0x00, 0x00, 0x00, 0x00, 0x00, 0x00, 0x00, 0x00, 0x00, 0x00, 0x00, 0x00, 0x00, 0x00, 0x00, 0x00, 0x00, 0x00, 0x00, 0x00, 0x00, 0x00, 0x00, 0x00, 0x00, 0x00, 0x00, 0x00, 0x00, 0x00, 0x00, 0x00, 0x00, 0x00, 0x00, 0x00, 0x00, 0x00, 0x00, 0x00, 0x00, 0x00, 0x00, 0x00, 0x00, 0x00, 0x00, 0x00, 0x00, 0x00, 0x00, 0x00, 0x00, 0x00, 0x00, 0x00, 0x00, 0x00, 0x00, 0x00, 0x00, 0x00, 0x00, 0x00, 0x00, 0x00, 0x00, 0x00, 0x00, 0x00, 0x00, 0x00, 0x00, 0x00, 0x00, 0x00, 0x00, 0x00, 0x00, 0x00, 0x00, 0x00, 0x00, 0x00, 0x00, 0x00, 0x00, 0x00, 0x00, 0x00, 0x00, 0x00, 0x00, 0x00, 0x00, 0x00, 0x00, 0x00, 0x00, 0x00, 0x00, 0x00, 0x00, 0x20, 0x00, 0x00, 0x00, 0xc4, 0x68, 0x5d, 0x3b, 0xa6, 0x3d, 0xc8, 0x3b, 0x41, 0xa6, 0xef, 0x3b, 0x5d, 0xc2, 0x06, 0x3b, 0x21, 0xb7, 0x11, 0x3b, 0x80, 0x33, 0x74, 0x3b, 0xba, 0x57, 0x2d, 0x3b, 0xa2, 0xe6, 0x2a, 0x3b, 0x05, 0xd8, 0x9a, 0x3b, 0x24, 0x21, 0x96, 0x3b, 0x6d, 0x68, 0x2f, 0x3b, 0x70, 0xf0, 0x66, 0x3b, 0x92, 0x40, 0x71, 0x3b, 0x55, 0x47, 0x4a, 0x3b, 0x8d, 0xe2, 0x31, 0x3b, 0xcd, 0xe3, 0xcc, 0x3a, 0xce, 0x6b, 0xb3, 0x3b, 0xf3, 0x42, 0x2f, 0x3b, 0xfd, 0xc0, 0x71, 0x3b, 0xd9, 0x51, 0x12, 0x3b, 0x8a, 0x38, 0xc3, 0x3a, 0xa6, 0x4c, 0x30, 0x3b, 0xd8, 0x87, 0x97, 0x3b, 0x0e, 0x56, 0xfa, 0x3a, 0x00, 0x17, 0x81, 0x3b, 0xc1, 0x26, 0x1f, 0x3b, 0x90, 0x4e, 0xa9, 0x3b, 0xb1, 0x96, 0x0b, 0x3b, 0xf9, 0xad, 0x60, 0x3b, 0x09, 0x67, 0x76, 0x3b, 0x44, 0x0b, 0x4f, 0x3b, 0x4a, 0x56, 0x0b, 0x3b, 0x1b, 0x00, 0x00, 0x00, 0x73, 0x65, 0x71, 0x75, 0x65, 0x6e, 0x74, 0x69, 0x61, 0x6c, 0x2f, 0x63, 0x6f, 0x6e, 0x76, 0x32, 0x64, 0x5f, 0x37, 0x32, 0x2f, 0x43, 0x6f, 0x6e, 0x76, 0x32, 0x44, 0x00, 0x04, 0x00, 0x00, 0x00, 0x20, 0x00, 0x00, 0x00, 0x01, 0x00, 0x00, 0x00, 0x01, 0x00, 0x00, 0x00, 0x20, 0x00, 0x00, 0x00, 0x16, 0xdf, 0xff, 0xff, 0x00, 0x00, 0x00, 0x01, 0x14, 0x00, 0x00, 0x00, 0xa8, 0x01, 0x00, 0x00, 0x11, 0x00, 0x00, 0x00, 0x00, 0x00, 0x00, 0x02, 0x74, 0x02, 0x00, 0x00, 0x84, 0xde, 0xff, 0xff, 0x08, 0x00, 0x00, 0x00, 0x0c, 0x01, 0x00, 0x00, 0x20, 0x00, 0x00, 0x00, 0x00, 0x00, 0x00, 0x00, 0x00, 0x00, 0x00, 0x00, 0x00, 0x00, 0x00, 0x00, 0x00, 0x00, 0x00, 0x00, 0x00, 0x00, 0x00, 0x00, 0x00, 0x00, 0x00, 0x00, 0x00, 0x00,